{
  "version": "1.0",
  "truncation": null,
  "padding": null,
  "added_tokens": [
    {
      "id": 0,
      "content": "<|pad|>",
      "single_word": false,
      "lstrip": false,
      "rstrip": false,
      "normalized": false,
      "special": true
    },
    {
      "id": 1,
      "content": "<|bos|>",
      "single_word": false,
      "lstrip": false,
      "rstrip": false,
      "normalized": false,
      "special": true
    },
    {
      "id": 2,
      "content": "<|eos|>",
      "single_word": false,
      "lstrip": false,
      "rstrip": false,
      "normalized": false,
      "special": true
    },
    {
      "id": 3,
      "content": "<|unk|>",
      "single_word": false,
      "lstrip": false,
      "rstrip": false,
      "normalized": false,
      "special": true
    },
    {
      "id": 4,
      "content": "<|user|>",
      "single_word": false,
      "lstrip": false,
      "rstrip": false,
      "normalized": false,
      "special": true
    },
    {
      "id": 5,
      "content": "<|assistant|>",
      "single_word": false,
      "lstrip": false,
      "rstrip": false,
      "normalized": false,
      "special": true
    },
    {
      "id": 6,
      "content": "<|system|>",
      "single_word": false,
      "lstrip": false,
      "rstrip": false,
      "normalized": false,
      "special": true
    },
    {
      "id": 7,
      "content": "<|img_start|>",
      "single_word": false,
      "lstrip": false,
      "rstrip": false,
      "normalized": false,
      "special": true
    },
    {
      "id": 8,
      "content": "<|img_end|>",
      "single_word": false,
      "lstrip": false,
      "rstrip": false,
      "normalized": false,
      "special": true
    },
    {
      "id": 9,
      "content": "<|img_gen|>",
      "single_word": false,
      "lstrip": false,
      "rstrip": false,
      "normalized": false,
      "special": true
    },
    {
      "id": 10,
      "content": "<|img_patch|>",
      "single_word": false,
      "lstrip": false,
      "rstrip": false,
      "normalized": false,
      "special": true
    },
    {
      "id": 11,
      "content": "<|aud_start|>",
      "single_word": false,
      "lstrip": false,
      "rstrip": false,
      "normalized": false,
      "special": true
    },
    {
      "id": 12,
      "content": "<|aud_end|>",
      "single_word": false,
      "lstrip": false,
      "rstrip": false,
      "normalized": false,
      "special": true
    },
    {
      "id": 13,
      "content": "<|speech_in|>",
      "single_word": false,
      "lstrip": false,
      "rstrip": false,
      "normalized": false,
      "special": true
    },
    {
      "id": 14,
      "content": "<|speech_out|>",
      "single_word": false,
      "lstrip": false,
      "rstrip": false,
      "normalized": false,
      "special": true
    },
    {
      "id": 15,
      "content": "<|aud_frame|>",
      "single_word": false,
      "lstrip": false,
      "rstrip": false,
      "normalized": false,
      "special": true
    },
    {
      "id": 16,
      "content": "<|code_start|>",
      "single_word": false,
      "lstrip": false,
      "rstrip": false,
      "normalized": false,
      "special": true
    },
    {
      "id": 17,
      "content": "<|code_end|>",
      "single_word": false,
      "lstrip": false,
      "rstrip": false,
      "normalized": false,
      "special": true
    },
    {
      "id": 18,
      "content": "<|exec|>",
      "single_word": false,
      "lstrip": false,
      "rstrip": false,
      "normalized": false,
      "special": true
    },
    {
      "id": 19,
      "content": "<|result|>",
      "single_word": false,
      "lstrip": false,
      "rstrip": false,
      "normalized": false,
      "special": true
    },
    {
      "id": 20,
      "content": "<|vid_start|>",
      "single_word": false,
      "lstrip": false,
      "rstrip": false,
      "normalized": false,
      "special": true
    },
    {
      "id": 21,
      "content": "<|vid_end|>",
      "single_word": false,
      "lstrip": false,
      "rstrip": false,
      "normalized": false,
      "special": true
    },
    {
      "id": 22,
      "content": "<|vid_gen|>",
      "single_word": false,
      "lstrip": false,
      "rstrip": false,
      "normalized": false,
      "special": true
    },
    {
      "id": 23,
      "content": "<|song_start|>",
      "single_word": false,
      "lstrip": false,
      "rstrip": false,
      "normalized": false,
      "special": true
    },
    {
      "id": 24,
      "content": "<|song_end|>",
      "single_word": false,
      "lstrip": false,
      "rstrip": false,
      "normalized": false,
      "special": true
    },
    {
      "id": 25,
      "content": "<|song_gen|>",
      "single_word": false,
      "lstrip": false,
      "rstrip": false,
      "normalized": false,
      "special": true
    },
    {
      "id": 26,
      "content": "<|thought|>",
      "single_word": false,
      "lstrip": false,
      "rstrip": false,
      "normalized": false,
      "special": true
    },
    {
      "id": 27,
      "content": "<|plan|>",
      "single_word": false,
      "lstrip": false,
      "rstrip": false,
      "normalized": false,
      "special": true
    },
    {
      "id": 28,
      "content": "<|tool_call|>",
      "single_word": false,
      "lstrip": false,
      "rstrip": false,
      "normalized": false,
      "special": true
    },
    {
      "id": 29,
      "content": "<|tool_end|>",
      "single_word": false,
      "lstrip": false,
      "rstrip": false,
      "normalized": false,
      "special": true
    },
    {
      "id": 30,
      "content": "<|observation|>",
      "single_word": false,
      "lstrip": false,
      "rstrip": false,
      "normalized": false,
      "special": true
    },
    {
      "id": 31,
      "content": "<|final|>",
      "single_word": false,
      "lstrip": false,
      "rstrip": false,
      "normalized": false,
      "special": true
    },
    {
      "id": 32,
      "content": "<|agent|>",
      "single_word": false,
      "lstrip": false,
      "rstrip": false,
      "normalized": false,
      "special": true
    },
    {
      "id": 33,
      "content": "<|delegate|>",
      "single_word": false,
      "lstrip": false,
      "rstrip": false,
      "normalized": false,
      "special": true
    },
    {
      "id": 34,
      "content": "<|scratch|>",
      "single_word": false,
      "lstrip": false,
      "rstrip": false,
      "normalized": false,
      "special": true
    }
  ],
  "normalizer": null,
  "pre_tokenizer": {
    "type": "ByteLevel",
    "add_prefix_space": false,
    "trim_offsets": true,
    "use_regex": true
  },
  "post_processor": {
    "type": "ByteLevel",
    "add_prefix_space": true,
    "trim_offsets": true,
    "use_regex": true
  },
  "decoder": {
    "type": "ByteLevel",
    "add_prefix_space": true,
    "trim_offsets": true,
    "use_regex": true
  },
  "model": {
    "type": "BPE",
    "dropout": null,
    "unk_token": "<|unk|>",
    "continuing_subword_prefix": null,
    "end_of_word_suffix": null,
    "fuse_unk": false,
    "byte_fallback": false,
    "ignore_merges": false,
    "vocab": {
      "<|pad|>": 0,
      "<|bos|>": 1,
      "<|eos|>": 2,
      "<|unk|>": 3,
      "<|user|>": 4,
      "<|assistant|>": 5,
      "<|system|>": 6,
      "<|img_start|>": 7,
      "<|img_end|>": 8,
      "<|img_gen|>": 9,
      "<|img_patch|>": 10,
      "<|aud_start|>": 11,
      "<|aud_end|>": 12,
      "<|speech_in|>": 13,
      "<|speech_out|>": 14,
      "<|aud_frame|>": 15,
      "<|code_start|>": 16,
      "<|code_end|>": 17,
      "<|exec|>": 18,
      "<|result|>": 19,
      "<|vid_start|>": 20,
      "<|vid_end|>": 21,
      "<|vid_gen|>": 22,
      "<|song_start|>": 23,
      "<|song_end|>": 24,
      "<|song_gen|>": 25,
      "<|thought|>": 26,
      "<|plan|>": 27,
      "<|tool_call|>": 28,
      "<|tool_end|>": 29,
      "<|observation|>": 30,
      "<|final|>": 31,
      "<|agent|>": 32,
      "<|delegate|>": 33,
      "<|scratch|>": 34,
      "!": 35,
      "\"": 36,
      "#": 37,
      "$": 38,
      "%": 39,
      "&": 40,
      "'": 41,
      "(": 42,
      ")": 43,
      "*": 44,
      "+": 45,
      ",": 46,
      "-": 47,
      ".": 48,
      "/": 49,
      "0": 50,
      "1": 51,
      "2": 52,
      "3": 53,
      "4": 54,
      "5": 55,
      "6": 56,
      "7": 57,
      "8": 58,
      "9": 59,
      ":": 60,
      ";": 61,
      "<": 62,
      "=": 63,
      ">": 64,
      "?": 65,
      "@": 66,
      "A": 67,
      "B": 68,
      "C": 69,
      "D": 70,
      "E": 71,
      "F": 72,
      "G": 73,
      "H": 74,
      "I": 75,
      "J": 76,
      "K": 77,
      "L": 78,
      "M": 79,
      "N": 80,
      "O": 81,
      "P": 82,
      "Q": 83,
      "R": 84,
      "S": 85,
      "T": 86,
      "U": 87,
      "V": 88,
      "W": 89,
      "X": 90,
      "Y": 91,
      "Z": 92,
      "[": 93,
      "\\": 94,
      "]": 95,
      "^": 96,
      "_": 97,
      "`": 98,
      "a": 99,
      "b": 100,
      "c": 101,
      "d": 102,
      "e": 103,
      "f": 104,
      "g": 105,
      "h": 106,
      "i": 107,
      "j": 108,
      "k": 109,
      "l": 110,
      "m": 111,
      "n": 112,
      "o": 113,
      "p": 114,
      "q": 115,
      "r": 116,
      "s": 117,
      "t": 118,
      "u": 119,
      "v": 120,
      "w": 121,
      "x": 122,
      "y": 123,
      "z": 124,
      "{": 125,
      "|": 126,
      "}": 127,
      "~": 128,
      "¡": 129,
      "¢": 130,
      "£": 131,
      "¤": 132,
      "¥": 133,
      "¦": 134,
      "§": 135,
      "¨": 136,
      "©": 137,
      "ª": 138,
      "«": 139,
      "¬": 140,
      "®": 141,
      "¯": 142,
      "°": 143,
      "±": 144,
      "²": 145,
      "³": 146,
      "´": 147,
      "µ": 148,
      "¶": 149,
      "·": 150,
      "¸": 151,
      "¹": 152,
      "º": 153,
      "»": 154,
      "¼": 155,
      "½": 156,
      "¾": 157,
      "¿": 158,
      "Â": 159,
      "Ã": 160,
      "Ä": 161,
      "Å": 162,
      "Ç": 163,
      "È": 164,
      "Ë": 165,
      "Ì": 166,
      "Í": 167,
      "Î": 168,
      "Ï": 169,
      "Ð": 170,
      "Ñ": 171,
      "Ü": 172,
      "Ý": 173,
      "ß": 174,
      "à": 175,
      "á": 176,
      "â": 177,
      "î": 178,
      "ï": 179,
      "ð": 180,
      "Ā": 181,
      "ā": 182,
      "Ă": 183,
      "ă": 184,
      "Ą": 185,
      "ą": 186,
      "Ĉ": 187,
      "ĉ": 188,
      "Ċ": 189,
      "ċ": 190,
      "Č": 191,
      "Đ": 192,
      "đ": 193,
      "Ē": 194,
      "ē": 195,
      "Ĕ": 196,
      "ĕ": 197,
      "Ě": 198,
      "Ĝ": 199,
      "Ġ": 200,
      "Ģ": 201,
      "ģ": 202,
      "Ĥ": 203,
      "ĥ": 204,
      "Ħ": 205,
      "ħ": 206,
      "Ĩ": 207,
      "ĩ": 208,
      "Ī": 209,
      "ī": 210,
      "Ĭ": 211,
      "ĭ": 212,
      "Į": 213,
      "į": 214,
      "İ": 215,
      "ı": 216,
      "Ĳ": 217,
      "ĳ": 218,
      "Ĵ": 219,
      "ĵ": 220,
      "Ķ": 221,
      "ķ": 222,
      "ĸ": 223,
      "Ĺ": 224,
      "ĺ": 225,
      "Ļ": 226,
      "ļ": 227,
      "Ľ": 228,
      "ľ": 229,
      "Ŀ": 230,
      "ŀ": 231,
      "Ł": 232,
      "ł": 233,
      "Ń": 234,
      "Ġt": 235,
      "Ġa": 236,
      "he": 237,
      "in": 238,
      "on": 239,
      "re": 240,
      "at": 241,
      "Ġthe": 242,
      "er": 243,
      "or": 244,
      "Ġs": 245,
      "Ġc": 246,
      "en": 247,
      "Ġ.": 248,
      "ion": 249,
      "es": 250,
      "ed": 251,
      "it": 252,
      "an": 253,
      "al": 254,
      "is": 255,
      "Ġo": 256,
      "ing": 257,
      "ro": 258,
      "Ġan": 259,
      "Ġf": 260,
      "Ġp": 261,
      "ic": 262,
      "Ġd": 263,
      "le": 264,
      "Ġin": 265,
      "ar": 266,
      "Ġm": 267,
      "Ġof": 268,
      "ct": 269,
      "Ġand": 270,
      "ation": 271,
      "Ġto": 272,
      "Ġb": 273,
      "Ġw": 274,
      "..": 275,
      "ent": 276,
      "ou": 277,
      "ig": 278,
      "as": 279,
      "ĠA": 280,
      "et": 281,
      "el": 282,
      "us": 283,
      "lo": 284,
      "ĠS": 285,
      "Ġre": 286,
      "ch": 287,
      "ĠĠ": 288,
      "mp": 289,
      "ce": 290,
      "ĠT": 291,
      "il": 292,
      "Ġis": 293,
      "ut": 294,
      "ve": 295,
      "ra": 296,
      "un": 297,
      "Ġcon": 298,
      "Ġfor": 299,
      "Ġe": 300,
      "Ġn": 301,
      "ĠC": 302,
      "âĢ": 303,
      "ab": 304,
      "Ġth": 305,
      "od": 306,
      "ur": 307,
      "st": 308,
      "ment": 309,
      "im": 310,
      "....": 311,
      "Ġl": 312,
      "Ġst": 313,
      "Ġ(": 314,
      "ure": 315,
      "ec": 316,
      "id": 317,
      "ate": 318,
      "ad": 319,
      "ly": 320,
      "pp": 321,
      "ĠI": 322,
      "ul": 323,
      "ol": 324,
      "ir": 325,
      "ge": 326,
      "Ġon": 327,
      "Ġ1": 328,
      "se": 329,
      "Ġh": 330,
      "ter": 331,
      "if": 332,
      "ss": 333,
      "ot": 334,
      "ĠM": 335,
      "Ġor": 336,
      "Ġg": 337,
      "ction": 338,
      "ith": 339,
      "ver": 340,
      "00": 341,
      "Ġco": 342,
      "ĠF": 343,
      "Ġus": 344,
      "Ġbe": 345,
      "ĠD": 346,
      "Ġpro": 347,
      "Ġde": 348,
      "ess": 349,
      "am": 350,
      "ĠP": 351,
      "Ġare": 352,
      "ow": 353,
      "ist": 354,
      "Ġwith": 355,
      "ĠL": 356,
      "qu": 357,
      "20": 358,
      "ore": 359,
      "Ġv": 360,
      "ĠR": 361,
      "our": 362,
      "ay": 363,
      "Ġy": 364,
      "Ġas": 365,
      "Ġse": 366,
      "for": 367,
      "ĠThe": 368,
      "Ġex": 369,
      "able": 370,
      "om": 371,
      "ign": 372,
      "Ġthat": 373,
      "the": 374,
      "ĠAI": 375,
      "ort": 376,
      "ity": 377,
      "Ġr": 378,
      "Ġcan": 379,
      "um": 380,
      "ri": 381,
      "Ġal": 382,
      "ect": 383,
      "ub": 384,
      "ĠE": 385,
      "ck": 386,
      "age": 387,
      "and": 388,
      "Ġch": 389,
      "form": 390,
      "ĠĠĠĠ": 391,
      "Ġmod": 392,
      "ave": 393,
      "pt": 394,
      "........": 395,
      "igh": 396,
      "ain": 397,
      "ive": 398,
      "up": 399,
      "âĢ¢": 400,
      "low": 401,
      "ers": 402,
      "AP": 403,
      "Ġro": 404,
      "ine": 405,
      "te": 406,
      "ations": 407,
      "Ġapp": 408,
      "The": 409,
      "iz": 410,
      "fig": 411,
      "ated": 412,
      "lic": 413,
      "Ġby": 414,
      "Ġen": 415,
      "ress": 416,
      "Ġair": 417,
      "ew": 418,
      "ĠO": 419,
      "ult": 420,
      "dd": 421,
      "Ġat": 422,
      "os": 423,
      "Ġcomp": 424,
      "rom": 425,
      "ire": 426,
      "pe": 427,
      "de": 428,
      "ail": 429,
      "ase": 430,
      "Ġdes": 431,
      "ose": 432,
      "ĠG": 433,
      "iv": 434,
      "ial": 435,
      "est": 436,
      "Ġcont": 437,
      "per": 438,
      "ust": 439,
      "Ġit": 440,
      "ft": 441,
      "Ġ[": 442,
      "ĠIn": 443,
      "fa": 444,
      "art": 445,
      "pl": 446,
      "Ġres": 447,
      "cc": 448,
      "ĊĠ": 449,
      "Ġ2": 450,
      "alu": 451,
      "ru": 452,
      "ĠB": 453,
      "ere": 454,
      "Ġsh": 455,
      "ari": 456,
      "Ġfrom": 457,
      "ork": 458,
      "ĠN": 459,
      "ight": 460,
      "hic": 461,
      "ener": 462,
      "ff": 463,
      "aun": 464,
      "Ġmodel": 465,
      "ĠV": 466,
      "ĠH": 467,
      "Ġyou": 468,
      "nt": 469,
      "chp": 470,
      "ical": 471,
      "plo": 472,
      "ĠW": 473,
      "op": 474,
      "formation": 475,
      "oose": 476,
      "du": 477,
      "Ġ20": 478,
      "ip": 479,
      "ran": 480,
      "ition": 481,
      "ï£": 482,
      "ies": 483,
      "ard": 484,
      "ments": 485,
      "all": 486,
      "ach": 487,
      "chpad": 488,
      "aunchpad": 489,
      "Ġwhe": 490,
      "ĠU": 491,
      "em": 492,
      "Ġnot": 493,
      "itch": 494,
      "ber": 495,
      "Ġsp": 496,
      "Ġlo": 497,
      "Ġadd": 498,
      "cre": 499,
      "act": 500,
      "You": 501,
      "Ġ3": 502,
      "lect": 503,
      "ass": 504,
      "figur": 505,
      "to": 506,
      "ĠLaunchpad": 507,
      "ĠSAP": 508,
      "ance": 509,
      "ag": 510,
      "che": 511,
      "ĠCon": 512,
      "ap": 513,
      "10": 514,
      "ï¬": 515,
      ").": 516,
      "ric": 517,
      "Ġsu": 518,
      "Ġ5": 519,
      "Ġmore": 520,
      "Ġdesign": 521,
      "ploy": 522,
      "vic": 523,
      "Ġyour": 524,
      "ide": 525,
      "ata": 526,
      "ant": 527,
      "yn": 528,
      "ame": 529,
      "und": 530,
      "ced": 531,
      "iew": 532,
      "are": 533,
      "witch": 534,
      "In": 535,
      "Ġsee": 536,
      "abil": 537,
      "âĪ": 538,
      "ual": 539,
      "end": 540,
      "ud": 541,
      "25": 542,
      "Ġinformation": 543,
      "Ġsub": 544,
      "ib": 545,
      "ther": 546,
      "ke": 547,
      "Ġrun": 548,
      "con": 549,
      "Ġtra": 550,
      "ĠFor": 551,
      "th": 552,
      "................": 553,
      "igure": 554,
      "Ġuse": 555,
      "12": 556,
      "ind": 557,
      "ime": 558,
      "ill": 559,
      "Ġused": 560,
      "figuration": 561,
      "og": 562,
      "Ġthis": 563,
      "cra": 564,
      "ell": 565,
      "ption": 566,
      "Ġ0": 567,
      "cl": 568,
      "ech": 569,
      "craft": 570,
      "__": 571,
      "ear": 572,
      "Ġper": 573,
      "quire": 574,
      "ution": 575,
      "hich": 576,
      "Âł": 577,
      "Ġdet": 578,
      "ens": 579,
      "ĠSt": 580,
      "oc": 581,
      "Ġ=": 582,
      "res": 583,
      "mpl": 584,
      "Ġgro": 585,
      "ces": 586,
      "Ġmet": 587,
      "mpt": 588,
      "ific": 589,
      "ource": 590,
      "ative": 591,
      "Ġhave": 592,
      "own": 593,
      "ang": 594,
      "ĠâĢ": 595,
      "Ġass": 596,
      "ane": 597,
      "cen": 598,
      "ary": 599,
      "ject": 600,
      "etw": 601,
      "ex": 602,
      "ix": 603,
      "rol": 604,
      "cenari": 605,
      "Ġwhich": 606,
      "ld": 607,
      "SAP": 608,
      "rans": 609,
      "Ġhe": 610,
      "ĠĊĠ": 611,
      "ater": 612,
      "AN": 613,
      "Ġ-": 614,
      "Ġgener": 615,
      "Ġ4": 616,
      "Ġacc": 617,
      "ĠDe": 618,
      "Ġle": 619,
      "cri": 620,
      "abl": 621,
      "gine": 622,
      "ĠJ": 623,
      "Ġvalu": 624,
      "avement": 625,
      "ruct": 626,
      "vel": 627,
      "ĠĠĠĠĠĠĠĠ": 628,
      "put": 629,
      "out": 630,
      "yst": 631,
      "ug": 632,
      "min": 633,
      "ctions": 634,
      "ates": 635,
      "mple": 636,
      "int": 637,
      "âĢĿ": 638,
      "fere": 639,
      "Ġdis": 640,
      "ffic": 641,
      "cy": 642,
      "Ġusing": 643,
      "].": 644,
      "ype": 645,
      "ployment": 646,
      "ings": 647,
      "ack": 648,
      "ystem": 649,
      "itor": 650,
      "vice": 651,
      "her": 652,
      "Ġrequire": 653,
      "Ġchoose": 654,
      "LI": 655,
      "ĠCh": 656,
      "ould": 657,
      "ep": 658,
      "Ġman": 659,
      "Ġser": 660,
      "co": 661,
      "oun": 662,
      "gra": 663,
      "Ġun": 664,
      "ong": 665,
      "Ġi": 666,
      "ics": 667,
      "Ġdata": 668,
      "face": 669,
      "cess": 670,
      "Ġnum": 671,
      "ecre": 672,
      "ry": 673,
      "Ġport": 674,
      "eld": 675,
      "ĠâĢľ": 676,
      "ration": 677,
      "ne": 678,
      "16": 679,
      "Figure": 680,
      "Ġinst": 681,
      "ile": 682,
      "Ġpre": 683,
      "ia": 684,
      "PU": 685,
      "ails": 686,
      "so": 687,
      "15": 688,
      "Ġcre": 689,
      "Con": 690,
      "Ġspec": 691,
      "Ġpl": 692,
      "lete": 693,
      "his": 694,
      "ilo": 695,
      "ence": 696,
      "ĠAut": 697,
      "sion": 698,
      "ollow": 699,
      "ower": 700,
      "av": 701,
      "lick": 702,
      "hod": 703,
      "ield": 704,
      "ph": 705,
      "valu": 706,
      "Ġswitch": 707,
      "lication": 708,
      "page": 709,
      "Ġone": 710,
      "Ġrole": 711,
      "Ġaircraft": 712,
      "Ġcons": 713,
      "Ġcom": 714,
      "figure": 715,
      "peed": 716,
      "Ġte": 717,
      "of": 718,
      "ased": 719,
      "Ġinter": 720,
      "Ġall": 721,
      "ating": 722,
      "Ġprov": 723,
      "Ġwork": 724,
      "ely": 725,
      "19": 726,
      "Ġconfiguration": 727,
      "Ġhas": 728,
      "sing": 729,
      "hen": 730,
      "ator": 731,
      ".,": 732,
      "Ġup": 733,
      "kn": 734,
      "sis": 735,
      "Ġcontain": 736,
      "li": 737,
      "Ġfollow": 738,
      "Ġresult": 739,
      "ude": 740,
      "Ġcontrol": 741,
      "Ġgroup": 742,
      "ond": 743,
      "Ġab": 744,
      "Pro": 745,
      "83": 746,
      "Ch": 747,
      "light": 748,
      "ser": 749,
      "Ġwe": 750,
      "lass": 751,
      "Ġset": 752,
      "ynam": 753,
      "Ġar": 754,
      "oint": 755,
      "ning": 756,
      "Ġexec": 757,
      "Ġselect": 758,
      "Ġob": 759,
      "ast": 760,
      "ability": 761,
      "lection": 762,
      "Ġout": 763,
      "âĪĴ": 764,
      "Ġatt": 765,
      "ll": 766,
      "vail": 767,
      "ecret": 768,
      "uring": 769,
      "Ġonly": 770,
      "amet": 771,
      "),": 772,
      "Ġwas": 773,
      "ode": 774,
      "Ġengine": 775,
      "ĠEx": 776,
      "tain": 777,
      "Ġwill": 778,
      "Ġlist": 779,
      "Ġnumber": 780,
      "ous": 781,
      "Ġj": 782,
      "000": 783,
      "Ġtrans": 784,
      "AA": 785,
      "11": 786,
      "Ġrep": 787,
      "Ġne": 788,
      "ĠPro": 789,
      "AC": 790,
      "To": 791,
      "ange": 792,
      "Ġmo": 793,
      "LIC": 794,
      "âĢĻ": 795,
      "BLIC": 796,
      "ĠSe": 797,
      "PUBLIC": 798,
      "ax": 799,
      "ĠEn": 800,
      "plane": 801,
      "esign": 802,
      "Ġover": 803,
      "Ġdeployment": 804,
      "Ġappro": 805,
      "Ġcol": 806,
      "50": 807,
      "nce": 808,
      "Ġent": 809,
      "Ġwhen": 810,
      "cenario": 811,
      "pport": 812,
      "view": 813,
      "Ġmay": 814,
      "ĠThis": 815,
      "aramet": 816,
      "ord": 817,
      "Ġso": 818,
      "Ġother": 819,
      "yp": 820,
      "Ġname": 821,
      "Ġalso": 822,
      "Ġpavement": 823,
      "Ġtur": 824,
      "St": 825,
      "Ġaddress": 826,
      "ible": 827,
      "ï¬ģ": 828,
      "Ġdetails": 829,
      "Ġlay": 830,
      "ature": 831,
      "els": 832,
      "ears": 833,
      "Ġver": 834,
      "ient": 835,
      "Ġ6": 836,
      "ac": 837,
      "ized": 838,
      "Table": 839,
      "ors": 840,
      "27": 841,
      "17": 842,
      "For": 843,
      "Ġad": 844,
      "Ġsystem": 845,
      "sp": 846,
      "ace": 847,
      "ak": 848,
      "mplate": 849,
      "ĠRe": 850,
      "dition": 851,
      "Not": 852,
      "Ġincl": 853,
      "Ġ17": 854,
      "pro": 855,
      "ron": 856,
      "14": 857,
      "red": 858,
      "ugh": 859,
      "aly": 860,
      "ĠApp": 861,
      "Ġincre": 862,
      "Ġprocess": 863,
      "Using": 864,
      "Ġimp": 865,
      "24": 866,
      "Ġtime": 867,
      "Ġresource": 868,
      "13": 869,
      "Ġmodels": 870,
      "Ġtrain": 871,
      "rit": 872,
      "ents": 873,
      "Ġthese": 874,
      "TP": 875,
      "Ġclick": 876,
      "cription": 877,
      "een": 878,
      "ake": 879,
      "echn": 880,
      "Ġthan": 881,
      "EN": 882,
      "Ġno": 883,
      "ilot": 884,
      "ample": 885,
      "Ġdef": 886,
      "Ġsuch": 887,
      "Ġmethod": 888,
      "etwork": 889,
      "isting": 890,
      "Ġpower": 891,
      "ðĿ": 892,
      "Ġvalue": 893,
      "ĠIP": 894,
      "De": 895,
      "Ġif": 896,
      "Ġpart": 897,
      "Ġstruct": 898,
      "way": 899,
      "aterial": 900,
      "Ġairplane": 901,
      "Ġexp": 902,
      "rough": 903,
      "fault": 904,
      "Ġeach": 905,
      "ffect": 906,
      "Ġtype": 907,
      "ĠĠĠ": 908,
      "18": 909,
      "ock": 910,
      "gy": 911,
      "ĠCore": 912,
      "rib": 913,
      "Ġfollowing": 914,
      "Ġperform": 915,
      "ases": 916,
      "23": 917,
      "LAN": 918,
      "cal": 919,
      "Ġ\"": 920,
      "let": 921,
      "wo": 922,
      "inal": 923,
      "âĢĵ": 924,
      "Ġhigh": 925,
      "etric": 926,
      "anding": 927,
      "ound": 928,
      "ount": 929,
      "En": 930,
      "____": 931,
      "etween": 932,
      "Ġlow": 933,
      "Ġdi": 934,
      "Ġnew": 935,
      "ages": 936,
      "ree": 937,
      "ory": 938,
      "aus": 939,
      "Ġqu": 940,
      "Ġdif": 941,
      "ural": 942,
      "ĠID": 943,
      "vailable": 944,
      "Ġrequired": 945,
      "ĠK": 946,
      "ize": 947,
      "ĠChoose": 948,
      "old": 949,
      "ptim": 950,
      "................................": 951,
      "21": 952,
      "Ġstat": 953,
      "ressure": 954,
      "Ġits": 955,
      "Ġsupport": 956,
      "¯ï£": 957,
      "ºï£": 958,
      "requ": 959,
      "Ġprovid": 960,
      "cept": 961,
      "ization": 962,
      "cedure": 963,
      "omp": 964,
      "ency": 965,
      "ome": 966,
      "les": 967,
      "Ġscenario": 968,
      "Ġme": 969,
      "22": 970,
      "AT": 971,
      "Ġload": 972,
      "Ġlif": 973,
      "Ġfun": 974,
      "Ġind": 975,
      "Ġinput": 976,
      "ue": 977,
      "âĨ": 978,
      "ational": 979,
      "ute": 980,
      "ify": 981,
      "Ġbut": 982,
      "ved": 983,
      "tern": 984,
      "Î¸": 985,
      "ches": 986,
      "Ġoper": 987,
      "ĠWe": 988,
      "AI": 989,
      "ynamic": 990,
      "30": 991,
      "Ġpilot": 992,
      "ets": 993,
      "ines": 994,
      "Ġparamet": 995,
      "ï¬Ģ": 996,
      "ble": 997,
      "man": 998,
      "peri": 999,
      "Ġaut": 1000,
      "ĠTable": 1001,
      "Ġrot": 1002,
      "ĠTo": 1003,
      "hor": 1004,
      "lay": 1005,
      "ms": 1006,
      "Ġbetween": 1007,
      "Ġ19": 1008,
      "RF": 1009,
      "Ġthen": 1010,
      "heck": 1011,
      "ross": 1012,
      "Ġshould": 1013,
      "CP": 1014,
      "îģ": 1015,
      "Ġfield": 1016,
      "Ġconne": 1017,
      "Ġthrough": 1018,
      "Ġtwo": 1019,
      "ai": 1020,
      "port": 1021,
      "Ġprompt": 1022,
      "under": 1023,
      "sh": 1024,
      "urface": 1025,
      "reate": 1026,
      "ade": 1027,
      "omm": 1028,
      "Ġaccess": 1029,
      "Ġ1783": 1030,
      "ions": 1031,
      "Ġmaterial": 1032,
      "Ġvari": 1033,
      "Ġk": 1034,
      "Ġdat": 1035,
      "Ġspecific": 1036,
      "Ġassign": 1037,
      "ference": 1038,
      "ĠAdd": 1039,
      "Ġdra": 1040,
      "Ġbeen": 1041,
      "ĠSwitch": 1042,
      "imit": 1043,
      "Ġ10": 1044,
      "fer": 1045,
      "olo": 1046,
      "Ġmain": 1047,
      "Ġdo": 1048,
      "stration": 1049,
      "resent": 1050,
      "Ġcomput": 1051,
      "mo": 1052,
      "Ġredu": 1053,
      "Ġvalues": 1054,
      "¯ï£¯ï£": 1055,
      "ºï£ºï£": 1056,
      "53": 1057,
      "Ġsec": 1058,
      "ifact": 1059,
      "Ġtemplate": 1060,
      "Ġra": 1061,
      "Ġ+": 1062,
      "ined": 1063,
      "duct": 1064,
      "Ġany": 1065,
      "ĠAd": 1066,
      "ĠIt": 1067,
      "ĠAutom": 1068,
      "ĠIf": 1069,
      "Ġcor": 1070,
      "ied": 1071,
      "pen": 1072,
      "Ġconst": 1073,
      "vers": 1074,
      "vices": 1075,
      "kness": 1076,
      "cul": 1077,
      "imum": 1078,
      "Ġappears": 1079,
      "ĠVLAN": 1080,
      "Ġid": 1081,
      "Ġflight": 1082,
      "vi": 1083,
      "Ġinto": 1084,
      "apter": 1085,
      "itude": 1086,
      "Ġnetwork": 1087,
      "Ġmode": 1088,
      "chestration": 1089,
      "Ġet": 1090,
      "RP": 1091,
      "Ġmetric": 1092,
      "bed": 1093,
      "Ġ8": 1094,
      "Ġcondition": 1095,
      "Ġ7": 1096,
      "net": 1097,
      "Ġtest": 1098,
      "Ġpressure": 1099,
      "ĠDesign": 1100,
      "ci": 1101,
      "ublication": 1102,
      "Ġshow": 1103,
      "oth": 1104,
      "Ġge": 1105,
      "Ġspeed": 1106,
      "Ġview": 1107,
      "oci": 1108,
      "fore": 1109,
      "Ġavailable": 1110,
      "time": 1111,
      "Ġim": 1112,
      "Ġunder": 1113,
      "ally": 1114,
      "Ġanaly": 1115,
      "Ġthic": 1116,
      "Ġ9": 1117,
      "Re": 1118,
      "cent": 1119,
      "well": 1120,
      "cenarios": 1121,
      "ext": 1122,
      "ving": 1123,
      "ull": 1124,
      "play": 1125,
      "ĠYou": 1126,
      "ering": 1127,
      "Ġsign": 1128,
      "Ġsecret": 1129,
      "Ġturb": 1130,
      "Ġfe": 1131,
      "Ġequ": 1132,
      "abled": 1133,
      "Ġtyp": 1134,
      "Ġmust": 1135,
      "izations": 1136,
      "Ġsim": 1137,
      "andard": 1138,
      "Ġexecution": 1139,
      "nect": 1140,
      "Ġobject": 1141,
      "ities": 1142,
      "ically": 1143,
      "Ġsame": 1144,
      "Ġcomm": 1145,
      "arg": 1146,
      "ask": 1147,
      "UM": 1148,
      "ĠAutomation": 1149,
      "Ġact": 1150,
      "40": 1151,
      "âĢĶ": 1152,
      "Ġwh": 1153,
      "Ġreg": 1154,
      ".;": 1155,
      "ĠÂ": 1156,
      "Ġdire": 1157,
      "ĠGu": 1158,
      "ccess": 1159,
      "minist": 1160,
      "fter": 1161,
      "Ġbl": 1162,
      "Ġstep": 1163,
      "ives": 1164,
      "ables": 1165,
      "ward": 1166,
      "col": 1167,
      "Ġthere": 1168,
      "Ġclass": 1169,
      "ĠMod": 1170,
      "cle": 1171,
      "erod": 1172,
      "app": 1173,
      "ox": 1174,
      "lex": 1175,
      "ware": 1176,
      "roup": 1177,
      "tifact": 1178,
      "ĠAir": 1179,
      "fficient": 1180,
      "Ġmin": 1181,
      "Ġ2025": 1182,
      "Ġneed": 1183,
      "Ġapproach": 1184,
      "Ġlayer": 1185,
      "LD": 1186,
      "ĠY": 1187,
      "ĠË": 1188,
      "Ġclo": 1189,
      "round": 1190,
      "valuation": 1191,
      "ĠSet": 1192,
      "ferent": 1193,
      "ðĿĳ": 1194,
      "Ġest": 1195,
      "Ġcheck": 1196,
      "velop": 1197,
      "Ġcreate": 1198,
      "Ġcy": 1199,
      "aract": 1200,
      "Ġke": 1201,
      "alt": 1202,
      "Ġduring": 1203,
      "Ġlimit": 1204,
      "Ġstall": 1205,
      "Ġcontains": 1206,
      "ilter": 1207,
      "ockwell": 1208,
      "eriv": 1209,
      "grade": 1210,
      "Note": 1211,
      "Ġed": 1212,
      "escription": 1213,
      "cto": 1214,
      "ĠFigure": 1215,
      "enai": 1216,
      "Ġbase": 1217,
      "ually": 1218,
      "Ġselected": 1219,
      "Ġfunction": 1220,
      "fo": 1221,
      "Ġlanding": 1222,
      "ology": 1223,
      "Ġparameters": 1224,
      "012": 1225,
      "uch": 1226,
      "Ġconfigure": 1227,
      "ĠRes": 1228,
      "ĠUser": 1229,
      "ĠĠĠĠĠĠĠĠĠ": 1230,
      "Î´": 1231,
      "ram": 1232,
      "amp": 1233,
      "ars": 1234,
      "ctober": 1235,
      "Se": 1236,
      "speed": 1237,
      "Ġve": 1238,
      "Ġform": 1239,
      "Ġconnection": 1240,
      "IE": 1241,
      "ark": 1242,
      "Ġrec": 1243,
      "ĠMan": 1244,
      "ĠOctober": 1245,
      "tra": 1246,
      "read": 1247,
      "Ġmult": 1248,
      "ON": 1249,
      "Ġag": 1250,
      "ĠAn": 1251,
      "load": 1252,
      "Ġresults": 1253,
      "ause": 1254,
      "ob": 1255,
      "Rockwell": 1256,
      "ever": 1257,
      "Ġcase": 1258,
      "Ġwhere": 1259,
      "flow": 1260,
      "Pre": 1261,
      "ise": 1262,
      "echan": 1263,
      "vent": 1264,
      "ĠPublication": 1265,
      "arch": 1266,
      "Ġdefault": 1267,
      "Chapter": 1268,
      "ĠâĪĴ": 1269,
      "opter": 1270,
      "Ġoptim": 1271,
      "Ġrel": 1272,
      "ified": 1273,
      "uding": 1274,
      "ptional": 1275,
      "Ġthickness": 1276,
      "ps": 1277,
      "ality": 1278,
      "Ġwheel": 1279,
      "Ġdiï¬Ģ": 1280,
      "ST": 1281,
      "Ġpo": 1282,
      "Ġdown": 1283,
      "Ġval": 1284,
      "Ġallow": 1285,
      "creen": 1286,
      "35": 1287,
      "Ġlong": 1288,
      "ively": 1289,
      "200": 1290,
      "mm": 1291,
      "ular": 1292,
      "ered": 1293,
      "Ġtraffic": 1294,
      "Ġtab": 1295,
      "ath": 1296,
      "Ġeffect": 1297,
      "Ġchart": 1298,
      "air": 1299,
      "eng": 1300,
      "Ġperformance": 1301,
      "over": 1302,
      "Ġsyn": 1303,
      "oles": 1304,
      "Ġweight": 1305,
      "Ġexisting": 1306,
      "ted": 1307,
      "Ġdatas": 1308,
      "nal": 1309,
      "Ġfl": 1310,
      "Ġchang": 1311,
      "Description": 1312,
      "áĪ": 1313,
      "Ġwere": 1314,
      "ĠFAA": 1315,
      "ociated": 1316,
      "Ġresp": 1317,
      "urre": 1318,
      "phalt": 1319,
      "owever": 1320,
      "Ġdrag": 1321,
      "der": 1322,
      "mod": 1323,
      "pos": 1324,
      "ten": 1325,
      "RFIE": 1326,
      "rust": 1327,
      "Ġdist": 1328,
      "tings": 1329,
      "Ġtheir": 1330,
      "ites": 1331,
      "Ġstore": 1332,
      "Ġdifferent": 1333,
      "RFIELD": 1334,
      "An": 1335,
      "ie": 1336,
      "Ġsol": 1337,
      "ional": 1338,
      "ĊĠĊĠ": 1339,
      "Procedure": 1340,
      "28": 1341,
      "Ġ&": 1342,
      "avements": 1343,
      "Ġstructure": 1344,
      "lind": 1345,
      "ven": 1346,
      "Ġdevice": 1347,
      "26": 1348,
      "IP": 1349,
      "xt": 1350,
      "Ġprogra": 1351,
      "Ġdeter": 1352,
      "one": 1353,
      "comp": 1354,
      "ove": 1355,
      "arge": 1356,
      "If": 1357,
      "rat": 1358,
      "Ġsurface": 1359,
      "Ġexample": 1360,
      "agement": 1361,
      "Ġcomb": 1362,
      "Ġinterface": 1363,
      "Ġstatus": 1364,
      "ting": 1365,
      "hicle": 1366,
      "Ġassigned": 1367,
      "ĠSer": 1368,
      "Ġaddition": 1369,
      "onitor": 1370,
      "ployments": 1371,
      "io": 1372,
      "Ġbec": 1373,
      "gh": 1374,
      "Ġpos": 1375,
      "Ġ00": 1376,
      "ite": 1377,
      "Ġpage": 1378,
      "Ġwing": 1379,
      "raph": 1380,
      "Ġchange": 1381,
      "lation": 1382,
      "pend": 1383,
      "Ġarea": 1384,
      "Ġsection": 1385,
      "text": 1386,
      "ĠGuide": 1387,
      "val": 1388,
      "Ġ150": 1389,
      "Ġcharact": 1390,
      "perations": 1391,
      "Ġdisplay": 1392,
      "Ġident": 1393,
      "80": 1394,
      "Î±": 1395,
      "ĠCreate": 1396,
      "Ġuser": 1397,
      "ĠRoles": 1398,
      "iqu": 1399,
      "Ġang": 1400,
      "Ġcollection": 1401,
      "Ġbased": 1402,
      "Ġboth": 1403,
      "ential": 1404,
      "Ġer": 1405,
      "ĠRun": 1406,
      "ruction": 1407,
      "60": 1408,
      "aft": 1409,
      "Ġscreen": 1410,
      "itive": 1411,
      "Ġabout": 1412,
      "Ġtraining": 1413,
      "orm": 1414,
      "fact": 1415,
      "Ġtypes": 1416,
      "70": 1417,
      "Ġconsid": 1418,
      "urrent": 1419,
      "75": 1420,
      "App": 1421,
      "ost": 1422,
      "Ġconnect": 1423,
      "ĠAuthor": 1424,
      "Ġexecut": 1425,
      "Ġmost": 1426,
      "requis": 1427,
      "tal": 1428,
      "ough": 1429,
      "lied": 1430,
      "requisites": 1431,
      "iple": 1432,
      "\":": 1433,
      "AS": 1434,
      "MP": 1435,
      "with": 1436,
      "Prerequisites": 1437,
      "Ġtim": 1438,
      "lications": 1439,
      "ositor": 1440,
      "Ġartifact": 1441,
      "HCP": 1442,
      "erature": 1443,
      "Ġroll": 1444,
      "ĠGener": 1445,
      "Ġinclude": 1446,
      "Ġindic": 1447,
      "Ex": 1448,
      "UI": 1449,
      "sed": 1450,
      "Ġî": 1451,
      "ish": 1452,
      "Ġpoint": 1453,
      "arm": 1454,
      "Ġlevel": 1455,
      "ification": 1456,
      "Ġworks": 1457,
      "Ġcompare": 1458,
      "tocol": 1459,
      "echnology": 1460,
      "rim": 1461,
      "ecution": 1462,
      "Ġenter": 1463,
      "Ġend": 1464,
      "cing": 1465,
      "ness": 1466,
      "ĠComp": 1467,
      "Ġgo": 1468,
      "date": 1469,
      "ons": 1470,
      "iven": 1471,
      "ĠUn": 1472,
      "Ġoutput": 1473,
      "Ġstate": 1474,
      "crete": 1475,
      "ront": 1476,
      "tion": 1477,
      "ura": 1478,
      "Ġhub": 1479,
      "Ġdelete": 1480,
      "Ġanalysis": 1481,
      "Ġcrit": 1482,
      "very": 1483,
      "ustom": 1484,
      "ccur": 1485,
      "ĠConfiguration": 1486,
      "Ġrotor": 1487,
      "Ġkey": 1488,
      "29": 1489,
      "aces": 1490,
      "ann": 1491,
      "erodynamic": 1492,
      "ES": 1493,
      "be": 1494,
      "ince": 1495,
      "Ġcap": 1496,
      "Ġfir": 1497,
      "imens": 1498,
      "Ġroles": 1499,
      "angu": 1500,
      "Ġinstance": 1501,
      "ĠWeb": 1502,
      "reg": 1503,
      "ĠAl": 1504,
      "Ġsecond": 1505,
      "Case": 1506,
      "Ġpri": 1507,
      "Ġcreated": 1508,
      "here": 1509,
      "tt": 1510,
      "ves": 1511,
      "ĠZ": 1512,
      "its": 1513,
      "Ġderiv": 1514,
      "Ġruntime": 1515,
      "Ġserver": 1516,
      "ĠSee": 1517,
      "Ġversion": 1518,
      "down": 1519,
      "uel": 1520,
      "Ġcal": 1521,
      "ans": 1522,
      "rop": 1523,
      "ility": 1524,
      "Ġassociated": 1525,
      "Ġerr": 1526,
      "ĠAuthorizations": 1527,
      "Ġint": 1528,
      "Ġprovide": 1529,
      "trol": 1530,
      "ither": 1531,
      "ĠGroup": 1532,
      "Ġlog": 1533,
      "ibr": 1534,
      "Ġmetrics": 1535,
      "ratix": 1536,
      "editor": 1537,
      "Ġstud": 1538,
      "Ġproper": 1539,
      "Ġsubgrade": 1540,
      "ocu": 1541,
      "Cl": 1542,
      "aw": 1543,
      "Ġph": 1544,
      "Ġpass": 1545,
      "figurations": 1546,
      "Enter": 1547,
      "ufact": 1548,
      "âĢ¦": 1549,
      "Ġwithin": 1550,
      "ended": 1551,
      "Ġservice": 1552,
      "Ġfields": 1553,
      "Ġcent": 1554,
      "Ġrat": 1555,
      "Ġshown": 1556,
      "Ġinstru": 1557,
      "ision": 1558,
      "Ġstart": 1559,
      "Ġstability": 1560,
      "Ġvia": 1561,
      "sec": 1562,
      "Ġfull": 1563,
      "ched": 1564,
      "Gener": 1565,
      "Ġdevices": 1566,
      "Ġdevelop": 1567,
      "âĨĴ": 1568,
      "Ġac": 1569,
      "igid": 1570,
      "urity": 1571,
      "Ġext": 1572,
      "Ġports": 1573,
      "Ġconditions": 1574,
      "Ġx": 1575,
      "ĠWork": 1576,
      "Ġcorre": 1577,
      "ĠWebUI": 1578,
      "mperature": 1579,
      "ER": 1580,
      "],": 1581,
      "Ġpan": 1582,
      "ocity": 1583,
      "aximum": 1584,
      "CL": 1585,
      "itial": 1586,
      "Ġdescri": 1587,
      "Ġsystems": 1588,
      "etrics": 1589,
      "100": 1590,
      "ĠQ": 1591,
      "Ġrange": 1592,
      "ï¬Ĥ": 1593,
      "Ġlift": 1594,
      "'s": 1595,
      "Class": 1596,
      "Ġflow": 1597,
      "ĠAs": 1598,
      "ilog": 1599,
      "Ġattrib": 1600,
      "ministration": 1601,
      "IN": 1602,
      "Ġkn": 1603,
      "ren": 1604,
      "ynamics": 1605,
      "Ġestim": 1606,
      "Ġdataset": 1607,
      "icon": 1608,
      "Ġeither": 1609,
      "Ġcylind": 1610,
      "When": 1611,
      "hed": 1612,
      "rain": 1613,
      "ract": 1614,
      "lying": 1615,
      "ĠDHCP": 1616,
      "ĠOn": 1617,
      "ok": 1618,
      "Ġsome": 1619,
      "ĠML": 1620,
      "Ġcompress": 1621,
      "ĠVer": 1622,
      "ET": 1623,
      "bo": 1624,
      "arning": 1625,
      "Ġbel": 1626,
      "Ġground": 1627,
      "Choose": 1628,
      "ĠEnter": 1629,
      "Ġlower": 1630,
      "Ġdoes": 1631,
      "ĠFAARFIELD": 1632,
      "aster": 1633,
      "essage": 1634,
      "Ġ200": 1635,
      "vest": 1636,
      "mall": 1637,
      "Ġoccur": 1638,
      "Ġangle": 1639,
      "not": 1640,
      "ule": 1641,
      "Î·": 1642,
      "only": 1643,
      "ï£´": 1644,
      "Ġdisc": 1645,
      "Ġstructural": 1646,
      "Ġturbine": 1647,
      "Al": 1648,
      "PI": 1649,
      "anced": 1650,
      "ice": 1651,
      "Ġcalcul": 1652,
      "64": 1653,
      "rid": 1654,
      "user": 1655,
      "unctions": 1656,
      "Ġsoil": 1657,
      "Ġblade": 1658,
      "Ġvehicle": 1659,
      "Ġring": 1660,
      "Ġcompon": 1661,
      "800": 1662,
      "igate": 1663,
      "Ġwithout": 1664,
      "Ġasphalt": 1665,
      "viewer": 1666,
      "AD": 1667,
      "Ġtool": 1668,
      "rad": 1669,
      "omain": 1670,
      "ĠĠĠĠĠĠĠĠĠĠĠĠĠĠĠĠ": 1671,
      "îģľ": 1672,
      "cience": 1673,
      "ash": 1674,
      "eline": 1675,
      "urn": 1676,
      "Ġline": 1677,
      "Ġsimul": 1678,
      "Ġwhile": 1679,
      "Ġchanges": 1680,
      "line": 1681,
      "Ġz": 1682,
      "itud": 1683,
      "Ġfact": 1684,
      "Ġdec": 1685,
      "ateg": 1686,
      "Ġsubject": 1687,
      "Ġhead": 1688,
      "Ġincrease": 1689,
      "Bus": 1690,
      "mb": 1691,
      "ole": 1692,
      "Ġcar": 1693,
      "Ġvis": 1694,
      "plore": 1695,
      "Ġmethods": 1696,
      "Ġquality": 1697,
      "Ġprovides": 1698,
      "ink": 1699,
      "Ġapplication": 1700,
      "alled": 1701,
      "Ġautom": 1702,
      "back": 1703,
      "par": 1704,
      "Ġter": 1705,
      "Ġcir": 1706,
      "Ġmm": 1707,
      "Ġmat": 1708,
      "rank": 1709,
      "Context": 1710,
      "periment": 1711,
      "Res": 1712,
      "lat": 1713,
      "main": 1714,
      "Ġthey": 1715,
      "Ġsens": 1716,
      "ank": 1717,
      "Ġevaluation": 1718,
      "Ġless": 1719,
      "Ġprodu": 1720,
      "ager": 1721,
      "________": 1722,
      "ocument": 1723,
      "af": 1724,
      "iness": 1725,
      "Ġrear": 1726,
      "ĠTrans": 1727,
      "Ġstandard": 1728,
      "2021": 1729,
      "Ġenabled": 1730,
      "ĠHowever": 1731,
      "ĠConfigure": 1732,
      "Ġafter": 1733,
      "Ġpack": 1734,
      "Ġwind": 1735,
      "elocity": 1736,
      "Ġgre": 1737,
      "Ġrate": 1738,
      "ĠWhen": 1739,
      "spaces": 1740,
      "Ġcharacter": 1741,
      "istics": 1742,
      "Ġrout": 1743,
      "Ġairspeed": 1744,
      "Ġconsist": 1745,
      "5320": 1746,
      "Ġfeature": 1747,
      "04": 1748,
      "aris": 1749,
      "ordin": 1750,
      "ring": 1751,
      "scenarios": 1752,
      "Ġwell": 1753,
      "ides": 1754,
      "ĠPort": 1755,
      "âĢĿ,": 1756,
      "03": 1757,
      "ampl": 1758,
      "ecess": 1759,
      "ĠOptional": 1760,
      "resp": 1761,
      "atives": 1762,
      "ournal": 1763,
      "Ġshows": 1764,
      "vol": 1765,
      "ately": 1766,
      "iles": 1767,
      "Ġorchestration": 1768,
      "Ġdirect": 1769,
      "ha": 1770,
      "mit": 1771,
      "Ġside": 1772,
      "Ġret": 1773,
      "Ġremo": 1774,
      "Ġconcept": 1775,
      "Ġrepositor": 1776,
      "45": 1777,
      "US": 1778,
      "less": 1779,
      "ys": 1780,
      "Ġfront": 1781,
      "Ġpresent": 1782,
      "other": 1783,
      "Ġprop": 1784,
      "gener": 1785,
      "Ġcl": 1786,
      "Ġsettings": 1787,
      "Ġlayers": 1788,
      "Ġadditional": 1789,
      ",âĢĿ": 1790,
      "43": 1791,
      "cation": 1792,
      "efficient": 1793,
      "ful": 1794,
      "gines": 1795,
      "Ġpavements": 1796,
      "ĠAPI": 1797,
      "ĠNo": 1798,
      "ceed": 1799,
      "Ġlangu": 1800,
      "umm": 1801,
      "Ġfirst": 1802,
      "genai": 1803,
      "ĠX": 1804,
      "rost": 1805,
      "Ġpub": 1806,
      "icore": 1807,
      "Ġcho": 1808,
      "Ġenable": 1809,
      "Ġloss": 1810,
      "Ġgenerative": 1811,
      "by": 1812,
      "su": 1813,
      "ethod": 1814,
      "ody": 1815,
      "Ġabove": 1816,
      "--": 1817,
      "com": 1818,
      "ts": 1819,
      "Ġcurrent": 1820,
      "anes": 1821,
      "ĠSecret": 1822,
      "Ġhow": 1823,
      "Ġdepend": 1824,
      "ighter": 1825,
      "âĪĤ": 1826,
      "ĠSelect": 1827,
      "lexible": 1828,
      "On": 1829,
      "ium": 1830,
      "Ġsmall": 1831,
      "Ġcode": 1832,
      "Ġlarge": 1833,
      "thesis": 1834,
      "ftware": 1835,
      "Ġgenerated": 1836,
      "SD": 1837,
      "based": 1838,
      "Ġcomplete": 1839,
      "Ġdescription": 1840,
      "Ġturn": 1841,
      "Ġmaximum": 1842,
      "leted": 1843,
      "itudinal": 1844,
      "just": 1845,
      "part": 1846,
      "atter": 1847,
      "Ġcat": 1848,
      "Ġele": 1849,
      "Ġbefore": 1850,
      "ĠStat": 1851,
      "Ġgeneral": 1852,
      "Comp": 1853,
      "iï¬ģ": 1854,
      "Ġmodul": 1855,
      "Ġtemperature": 1856,
      "Ġjoint": 1857,
      "set": 1858,
      "ycle": 1859,
      "âī": 1860,
      "Ġbas": 1861,
      "faces": 1862,
      "Ġworkflow": 1863,
      "vious": 1864,
      "Field": 1865,
      "tic": 1866,
      "Ġcross": 1867,
      "Ġmake": 1868,
      "asure": 1869,
      "Ġmultiple": 1870,
      "05": 1871,
      "38": 1872,
      "ey": 1873,
      "ČČ": 1874,
      "ĠSp": 1875,
      "ĠMars": 1876,
      "Ġvelocity": 1877,
      "Ġadded": 1878,
      "Ġmaintain": 1879,
      "arison": 1880,
      "rate": 1881,
      "ton": 1882,
      "Ġtotal": 1883,
      "ention": 1884,
      "Ġlab": 1885,
      "ĠOperations": 1886,
      "ults": 1887,
      "aneu": 1888,
      "Configure": 1889,
      "Ġgroups": 1890,
      "Ġoverlay": 1891,
      "Ġimpro": 1892,
      "ĠËĨ": 1893,
      "ĠSetup": 1894,
      "foil": 1895,
      "06": 1896,
      "AR": 1897,
      "ape": 1898,
      "Ġ<": 1899,
      "lock": 1900,
      "Ġnon": 1901,
      "Ġsearch": 1902,
      "umber": 1903,
      "Ġengines": 1904,
      "ĠDevice": 1905,
      "bers": 1906,
      "ission": 1907,
      "Ġmix": 1908,
      "ĠCase": 1909,
      "Ġste": 1910,
      "Ġprovided": 1911,
      "Ġposition": 1912,
      "Ġexecutable": 1913,
      "Ġam": 1914,
      "Ġthrust": 1915,
      "Ġgiven": 1916,
      "omet": 1917,
      "Ġplace": 1918,
      "ĠËĻ": 1919,
      "Ġdue": 1920,
      "Ġhig": 1921,
      "abilized": 1922,
      "ograph": 1923,
      "07": 1924,
      "ION": 1925,
      "SS": 1926,
      "Tech": 1927,
      "Ġfuel": 1928,
      "ĠSh": 1929,
      "Ġenc": 1930,
      "Ġrequirements": 1931,
      "ĠAdministration": 1932,
      "oid": 1933,
      "Ġax": 1934,
      "Ġcrank": 1935,
      "ingle": 1936,
      "ĠAr": 1937,
      "Ġrece": 1938,
      "ilar": 1939,
      "urther": 1940,
      "covery": 1941,
      "Ġposs": 1942,
      "ecessary": 1943,
      "36": 1944,
      "85": 1945,
      "Ġfram": 1946,
      "Ġwould": 1947,
      "Ġconcrete": 1948,
      "Ġforce": 1949,
      "ĠResource": 1950,
      "ism": 1951,
      "row": 1952,
      "ctional": 1953,
      "Ġmaterials": 1954,
      "See": 1955,
      "MM": 1956,
      "dic": 1957,
      "mine": 1958,
      "til": 1959,
      "ert": 1960,
      "Ġnorm": 1961,
      "pped": 1962,
      "semb": 1963,
      "ĠPavement": 1964,
      "mplement": 1965,
      "Ġedit": 1966,
      "Rel": 1967,
      "can": 1968,
      "ged": 1969,
      "we": 1970,
      "àµ": 1971,
      "Ġfilter": 1972,
      "Ġdial": 1973,
      "ailed": 1974,
      "Ġbecause": 1975,
      "action": 1976,
      "off": 1977,
      "lections": 1978,
      "etails": 1979,
      "Ġthree": 1980,
      "that": 1981,
      "ĠEngine": 1982,
      "Ġdiï¬Ģere": 1983,
      "Ġdescribed": 1984,
      "02": 1985,
      "99": 1986,
      "Mod": 1987,
      "design": 1988,
      "lear": 1989,
      "ength": 1990,
      "amples": 1991,
      "ĠÏ": 1992,
      "Ġicon": 1993,
      "Ġnose": 1994,
      "Ġ5800": 1995,
      "mplates": 1996,
      "Ġratio": 1997,
      "Ġdialog": 1998,
      "33": 1999,
      "Add": 2000,
      "med": 2001,
      "Ġtop": 2002,
      "Ġref": 2003,
      "ĠRep": 2004,
      "ĠInformation": 2005,
      "ending": 2006,
      "Ġmany": 2007,
      "ribution": 2008,
      "ĠVerilog": 2009,
      "case": 2010,
      "word": 2011,
      "Î²": 2012,
      "Ġaerodynamic": 2013,
      "Ġsize": 2014,
      "alog": 2015,
      "estamp": 2016,
      "earch": 2017,
      "Ġincluding": 2018,
      "Ġattribute": 2019,
      "Avail": 2020,
      "EE": 2021,
      "cu": 2022,
      "wind": 2023,
      "iston": 2024,
      "Ġplan": 2025,
      "ĠApply": 2026,
      "Ġgear": 2027,
      "uracy": 2028,
      "This": 2029,
      "dire": 2030,
      "hold": 2031,
      "vanced": 2032,
      "Ġcould": 2033,
      "Ġdesigned": 2034,
      "Stratix": 2035,
      "Ġpanel": 2036,
      "Ġcylinder": 2037,
      "As": 2038,
      "ner": 2039,
      "Ġsource": 2040,
      "Ġgu": 2041,
      "Ġmanufact": 2042,
      "Ġobtain": 2043,
      "Ġrepresent": 2044,
      "onitoring": 2045,
      "ĠWorkspaces": 2046,
      "dit": 2047,
      "side": 2048,
      "titude": 2049,
      "ication": 2050,
      "Ġinitial": 2051,
      "Ġback": 2052,
      "lob": 2053,
      "Ġ15": 2054,
      "ume": 2055,
      "ĠEther": 2056,
      "cluding": 2057,
      "95": 2058,
      "Ġtask": 2059,
      "Ġfile": 2060,
      "ĠTh": 2061,
      "Ġproduct": 2062,
      "ourse": 2063,
      "ries": 2064,
      "Ġrunway": 2065,
      "Ġcomputer": 2066,
      "dis": 2067,
      "led": 2068,
      "Ġopen": 2069,
      "Ġstress": 2070,
      "ips": 2071,
      "manager": 2072,
      "ĠAircraft": 2073,
      "RE": 2074,
      "ination": 2075,
      "Ġfound": 2076,
      "asing": 2077,
      "Ġreal": 2078,
      "ired": 2079,
      "ï¬ģg": 2080,
      "ecutions": 2081,
      "latform": 2082,
      "iency": 2083,
      "Ġfrequ": 2084,
      "ĠĠĊĠ": 2085,
      "ĠMechan": 2086,
      "Ġcost": 2087,
      "Ġdem": 2088,
      "ĠView": 2089,
      "endix": 2090,
      "Ġimport": 2091,
      "Ġmeasure": 2092,
      "¯ï£¯ï£¯ï£¯ï£": 2093,
      "ºï£ºï£ºï£ºï£": 2094,
      "Ġimages": 2095,
      "plorer": 2096,
      "fir": 2097,
      "ïĤ": 2098,
      "odes": 2099,
      "Ġdetermine": 2100,
      "imensional": 2101,
      "reng": 2102,
      "):": 2103,
      "ĠSystem": 2104,
      "ĠDeployment": 2105,
      "Ġflap": 2106,
      "32": 2107,
      "CD": 2108,
      "Create": 2109,
      "ĠAO": 2110,
      "ĠThese": 2111,
      "osing": 2112,
      "Ġtranslation": 2113,
      "Ġpartic": 2114,
      "ique": 2115,
      "respond": 2116,
      "66": 2117,
      "90": 2118,
      "vis": 2119,
      "Â°": 2120,
      "Ġel": 2121,
      "Ġcases": 2122,
      "Ġdri": 2123,
      "Ġmot": 2124,
      "ĠTe": 2125,
      "Ġgra": 2126,
      "Ġtrack": 2127,
      "ĠDelete": 2128,
      "sub": 2129,
      "vate": 2130,
      "Ġcustom": 2131,
      "Ġpitch": 2132,
      "Ġdomain": 2133,
      "aring": 2134,
      "Ġgenai": 2135,
      "ected": 2136,
      "uper": 2137,
      "Ġhere": 2138,
      "ateral": 2139,
      "ĠProtocol": 2140,
      "lobal": 2141,
      "power": 2142,
      "iron": 2143,
      "ĠOpen": 2144,
      "âĨĳ": 2145,
      "ĠModel": 2146,
      "86": 2147,
      "Ġsingle": 2148,
      "Ġfinal": 2149,
      "Ġ100": 2150,
      "Ġmodule": 2151,
      "Ġ25": 2152,
      "ĠNAT": 2153,
      "Ġattitude": 2154,
      "Ġrad": 2155,
      "Click": 2156,
      "From": 2157,
      "ca": 2158,
      "ling": 2159,
      "umpt": 2160,
      "Ġpath": 2161,
      "Ġmessage": 2162,
      "Ġforward": 2163,
      "olic": 2164,
      "ands": 2165,
      "osp": 2166,
      "Ġclock": 2167,
      "zz": 2168,
      "ansion": 2169,
      "Ġdecre": 2170,
      "ecut": 2171,
      "force": 2172,
      "Ġincreased": 2173,
      "ferred": 2174,
      "Ġsteps": 2175,
      "Ġcomponents": 2176,
      "Ġamount": 2177,
      "ï¬ģgur": 2178,
      "AL": 2179,
      "Ad": 2180,
      "Aut": 2181,
      "Laun": 2182,
      "ĠScience": 2183,
      "Ġelect": 2184,
      "Ġnecessary": 2185,
      "Ġproble": 2186,
      "ayer": 2187,
      "erson": 2188,
      "ĠOver": 2189,
      "def": 2190,
      "Ġcontin": 2191,
      "shaft": 2192,
      "Ġhigher": 2193,
      "rength": 2194,
      "87": 2195,
      "no": 2196,
      "ties": 2197,
      "wit": 2198,
      "Ġ/": 2199,
      "used": 2200,
      "Ġhor": 2201,
      "istry": 2202,
      "Ġrunning": 2203,
      "Ġsupported": 2204,
      "Ġstudy": 2205,
      "Clou": 2206,
      "We": 2207,
      "mer": 2208,
      "ral": 2209,
      "Ġmechan": 2210,
      "Ġoff": 2211,
      "Ġeven": 2212,
      "ĠLog": 2213,
      "Ġlocal": 2214,
      "Ġuntil": 2215,
      "áĪº": 2216,
      "áĪ»": 2217,
      "Ġprior": 2218,
      "Ġinstruments": 2219,
      "77": 2220,
      "84": 2221,
      "Sp": 2222,
      "Sec": 2223,
      "run": 2224,
      "Ġï¬Ĥ": 2225,
      "atically": 2226,
      "enant": 2227,
      "Ġbox": 2228,
      "Ġorder": 2229,
      "ĠPl": 2230,
      "eller": 2231,
      "îģĮ": 2232,
      "Ġimage": 2233,
      "Ġneeded": 2234,
      "Ġvalve": 2235,
      "Data": 2236,
      "aicore": 2237,
      "dry": 2238,
      "more": 2239,
      "sive": 2240,
      "tical": 2241,
      "eral": 2242,
      "ĠAss": 2243,
      "Ġbeing": 2244,
      "Ġairfoil": 2245,
      "pli": 2246,
      "configuration": 2247,
      "Ġmanagement": 2248,
      "Ġdiï¬Ģuser": 2249,
      "SP": 2250,
      "Technology": 2251,
      "viron": 2252,
      "hent": 2253,
      "Ġcalled": 2254,
      "ished": 2255,
      "Ġcoefficient": 2256,
      "Ġprocedure": 2257,
      "Ġrigid": 2258,
      "pth": 2259,
      "achine": 2260,
      "ministr": 2261,
      "Ġsynthesis": 2262,
      "Ġerror": 2263,
      "Ġpossible": 2264,
      "Foun": 2265,
      "ND": 2266,
      "Use": 2267,
      "atively": 2268,
      "Ġsl": 2269,
      "als": 2270,
      "rodu": 2271,
      "Ġremain": 2272,
      "ĠMetrics": 2273,
      "Ġcoordin": 2274,
      "ĠDetails": 2275,
      "rie": 2276,
      "ailure": 2277,
      "chpa": 2278,
      "ogy": 2279,
      "ificant": 2280,
      "Ġneg": 2281,
      "Ġvalid": 2282,
      "\",": 2283,
      "OR": 2284,
      "Type": 2285,
      "Un": 2286,
      "data": 2287,
      "nol": 2288,
      "pre": 2289,
      "Ġ.................................": 2290,
      "Ġdrop": 2291,
      "Ġmaneu": 2292,
      "ĠCo": 2293,
      "Ġ16": 2294,
      "iff": 2295,
      "Info": 2296,
      "Ġexecutions": 2297,
      "Ġminimum": 2298,
      "Ġdiscus": 2299,
      "Platform": 2300,
      "cor": 2301,
      "uil": 2302,
      "ins": 2303,
      "igation": 2304,
      "Ġapply": 2305,
      "ivid": 2306,
      "Ġcorrect": 2307,
      "Ġpackets": 2308,
      "Ġrepository": 2309,
      "31": 2310,
      "37": 2311,
      "RL": 2312,
      "from": 2313,
      "Ġaround": 2314,
      "ergy": 2315,
      "Ġour": 2316,
      "utes": 2317,
      "Ġconï¬ģgur": 2318,
      "ote": 2319,
      "teg": 2320,
      "âĢĿ.": 2321,
      "fficiency": 2322,
      "Ġaddresses": 2323,
      "Ġlife": 2324,
      "Ġbelow": 2325,
      "Business": 2326,
      "Ġgreater": 2327,
      "firm": 2328,
      "500": 2329,
      "Gen": 2330,
      "hat": 2331,
      "Ġpiston": 2332,
      "Ġrecovery": 2333,
      "Ġusually": 2334,
      "Ġdeployments": 2335,
      "Ġcannot": 2336,
      "rial": 2337,
      "ĠInter": 2338,
      "atory": 2339,
      "spec": 2340,
      "Ġconfigured": 2341,
      "Ġidentify": 2342,
      "Ġconsider": 2343,
      "ĠEngineering": 2344,
      "base": 2345,
      "press": 2346,
      "point": 2347,
      "sol": 2348,
      "uct": 2349,
      "ances": 2350,
      "Ġmade": 2351,
      "ĠTime": 2352,
      "Ġ12": 2353,
      "ĠMode": 2354,
      "Ġaltitude": 2355,
      "ĠOr": 2356,
      "ĠControl": 2357,
      "Ġadjust": 2358,
      "ocker": 2359,
      "Ġrecomm": 2360,
      "model": 2361,
      "Ġcriter": 2362,
      "board": 2363,
      "01": 2364,
      "xim": 2365,
      "Ġclear": 2366,
      "ene": 2367,
      "elic": 2368,
      "Ġlarg": 2369,
      "Ġlibr": 2370,
      "Ġconstruction": 2371,
      "Ġsimilar": 2372,
      "Ġconnected": 2373,
      "TS": 2374,
      "file": 2375,
      "iod": 2376,
      "Ġtechn": 2377,
      "road": 2378,
      "chie": 2379,
      "Ġnav": 2380,
      "ources": 2381,
      "ĠUp": 2382,
      "ructure": 2383,
      "haust": 2384,
      "Ġchoosing": 2385,
      "cuit": 2386,
      "AB": 2387,
      "FAA": 2388,
      "Ġtenant": 2389,
      "Ġpract": 2390,
      "Ġwant": 2391,
      "Ġdeleted": 2392,
      "ects": 2393,
      "Ġapplied": 2394,
      "ĠBSD": 2395,
      "value": 2396,
      "mming": 2397,
      "Ġdetermin": 2398,
      "elicopter": 2399,
      "44": 2400,
      "SR": 2401,
      "ead": 2402,
      "tions": 2403,
      "Ġsince": 2404,
      "Ġcam": 2405,
      "Ġgrid": 2406,
      "umer": 2407,
      "izing": 2408,
      "Ġsubnet": 2409,
      "ators": 2410,
      "Ġfollows": 2411,
      "Ġmean": 2412,
      "Ġdirection": 2413,
      "ĠServer": 2414,
      "Ġ005": 2415,
      "ĠAOA": 2416,
      "greg": 2417,
      "Ġachie": 2418,
      "Ġcaus": 2419,
      "range": 2420,
      "cale": 2421,
      "Ġkg": 2422,
      "ĠÂ±": 2423,
      "vestigate": 2424,
      "sembly": 2425,
      "'t": 2426,
      "aced": 2427,
      "Ġtake": 2428,
      "inter": 2429,
      "onse": 2430,
      "Ġinches": 2431,
      "ĠType": 2432,
      "rack": 2433,
      "Ġemp": 2434,
      "ensity": 2435,
      "aved": 2436,
      "Delete": 2437,
      "Ġstatic": 2438,
      "ternational": 2439,
      "Ġlonger": 2440,
      "Ġcatalog": 2441,
      "//": 2442,
      "09": 2443,
      "89": 2444,
      "ED": 2445,
      "IC": 2446,
      "ivers": 2447,
      "Ġconfigurations": 2448,
      "Ġli": 2449,
      "see": 2450,
      "ĠDis": 2451,
      "ĠData": 2452,
      "ĠLi": 2453,
      "ays": 2454,
      "ĠNew": 2455,
      "dule": 2456,
      "chedule": 2457,
      "BR": 2458,
      "Dis": 2459,
      "Ġï¬ģ": 2460,
      "Ġwrit": 2461,
      "ĠHub": 2462,
      "Ġprevent": 2463,
      "Ġsoftware": 2464,
      "Ġprogram": 2465,
      "vironment": 2466,
      "65": 2467,
      "Fig": 2468,
      "IT": 2469,
      "OD": 2470,
      "gan": 2471,
      "ler": 2472,
      "rint": 2473,
      "Ä±": 2474,
      "orage": 2475,
      "Ġrequ": 2476,
      "struction": 2477,
      "ĠLe": 2478,
      "Ġcomparison": 2479,
      "ĠInst": 2480,
      "ĠUS": 2481,
      "Ġruns": 2482,
      "Ġreduce": 2483,
      "Ġcorrespond": 2484,
      "ĠîĢ": 2485,
      "Ġcompared": 2486,
      "acc": 2487,
      "Ġthem": 2488,
      "ustion": 2489,
      "255": 2490,
      "Ġaccuracy": 2491,
      "Ġlearning": 2492,
      "Ġprevious": 2493,
      "aking": 2494,
      "Ġinclud": 2495,
      "Ġlanguage": 2496,
      "Man": 2497,
      "Tip": 2498,
      "ses": 2499,
      "type": 2500,
      "Ġbatter": 2501,
      "Ġhand": 2502,
      "Ġusers": 2503,
      "Ġ30": 2504,
      "ared": 2505,
      "Ġsubst": 2506,
      "Ġhel": 2507,
      "Ġlead": 2508,
      "feren": 2509,
      "Ġlisted": 2510,
      "Ġdefined": 2511,
      "Default": 2512,
      "Ġoperating": 2513,
      "39": 2514,
      "67": 2515,
      "ÝĲ": 2516,
      "ister": 2517,
      "ĠAC": 2518,
      "eler": 2519,
      "ĠSte": 2520,
      "Ġreference": 2521,
      "2025": 2522,
      "Ġapplications": 2523,
      "Ġshape": 2524,
      "abilities": 2525,
      "ibli": 2526,
      "IG": 2527,
      "aches": 2528,
      "phic": 2529,
      "where": 2530,
      "itu": 2531,
      "Ġpur": 2532,
      "ĠThere": 2533,
      "quirements": 2534,
      "ĠExplorer": 2535,
      "Ġreport": 2536,
      "Ġrespect": 2537,
      "Ġgood": 2538,
      "Results": 2539,
      "ĠStatus": 2540,
      "Ġnormal": 2541,
      "))": 2542,
      "34": 2543,
      "All": 2544,
      "lu": 2545,
      "men": 2546,
      "atic": 2547,
      "ern": 2548,
      "ories": 2549,
      "Ġsi": 2550,
      "Ġpar": 2551,
      "ĠPo": 2552,
      "dex": 2553,
      "aries": 2554,
      "âĪĹ": 2555,
      "ĠStability": 2556,
      "Prompt": 2557,
      "alysis": 2558,
      "Ġconstant": 2559,
      "ĠOnly": 2560,
      "Ġcompressor": 2561,
      "ier": 2562,
      "ior": 2563,
      "rm": 2564,
      "loy": 2565,
      "Ġevalu": 2566,
      "Ġlength": 2567,
      "ivity": 2568,
      "Ġloads": 2569,
      "period": 2570,
      "Ġestabl": 2571,
      "Ġtimestamp": 2572,
      "Ġcritical": 2573,
      "Ġderivatives": 2574,
      "EC": 2575,
      "ian": 2576,
      "Ġu": 2577,
      "esh": 2578,
      "ĠSo": 2579,
      "ĠFlight": 2580,
      "Ġsepar": 2581,
      "Ġenergy": 2582,
      "Ġdesired": 2583,
      "ipeline": 2584,
      "ĠAddress": 2585,
      "Ġcenter": 2586,
      "ticle": 2587,
      "ero": 2588,
      "Ġpe": 2589,
      "etter": 2590,
      "dder": 2591,
      "Ġpercent": 2592,
      "ixed": 2593,
      "ĠDef": 2594,
      "cript": 2595,
      "ways": 2596,
      "Ġagain": 2597,
      "ĠEthernet": 2598,
      "mark": 2599,
      "vant": 2600,
      "Ġfind": 2601,
      "arn": 2602,
      "Ġnodes": 2603,
      "ĠCD": 2604,
      "ĠClass": 2605,
      "Ġstrength": 2606,
      "Ġbeh": 2607,
      "ĠHelicopter": 2608,
      "ĠUse": 2609,
      "Ġperiod": 2610,
      "Ġunique": 2611,
      "Ġexpansion": 2612,
      "ummary": 2613,
      "48": 2614,
      "Air": 2615,
      "aim": 2616,
      "oad": 2617,
      "sure": 2618,
      "Ġbody": 2619,
      "ety": 2620,
      "Ġrest": 2621,
      "Ġstabilized": 2622,
      "pper": 2623,
      "ĠGit": 2624,
      "place": 2625,
      "Ġshaft": 2626,
      "Ġspin": 2627,
      "Ġnumbers": 2628,
      "Ġcontainer": 2629,
      "Ġfunctions": 2630,
      "Generative": 2631,
      "Related": 2632,
      "witches": 2633,
      "si": 2634,
      "edback": 2635,
      "Ġread": 2636,
      "ĠMAC": 2637,
      "Ġ2023": 2638,
      "Ġsignificant": 2639,
      "Ġallows": 2640,
      "Ġcharacteristics": 2641,
      "umption": 2642,
      "sid": 2643,
      "ĊĠĠĠĠ": 2644,
      "enu": 2645,
      "Ġfurther": 2646,
      "Ġdynamic": 2647,
      "ĠTest": 2648,
      "Ġland": 2649,
      "Ġorig": 2650,
      "Ġsever": 2651,
      "Ġcontent": 2652,
      "Ġ2010": 2653,
      "ĠĊĠĊĠ": 2654,
      "akes": 2655,
      "Ġartifacts": 2656,
      "ĠGroups": 2657,
      "Ġvisual": 2658,
      "Ġmodulus": 2659,
      "ĠMechanics": 2660,
      "olicy": 2661,
      "Ġï¬Ĥow": 2662,
      "Ġfour": 2663,
      "Ġdel": 2664,
      "Ġbo": 2665,
      "Ġwall": 2666,
      "ĠAccess": 2667,
      "001": 2668,
      "Ġareas": 2669,
      "Ġselection": 2670,
      "Ġwhether": 2671,
      "ĠPrompt": 2672,
      "Ġmove": 2673,
      "arameters": 2674,
      "Ġsecurity": 2675,
      "Ġerrors": 2676,
      "Ġautomatically": 2677,
      "Ġimportant": 2678,
      "gregate": 2679,
      "08": 2680,
      "://": 2681,
      "gor": 2682,
      "Ġ{": 2683,
      "eter": 2684,
      "vered": 2685,
      "âĢ²": 2686,
      "otential": 2687,
      "formance": 2688,
      "create": 2689,
      "conom": 2690,
      "Ġimplement": 2691,
      "Ġvery": 2692,
      "gorith": 2693,
      "74": 2694,
      "Ar": 2695,
      "aper": 2696,
      "ached": 2697,
      "pavement": 2698,
      "son": 2699,
      "your": 2700,
      "Ġâī": 2701,
      "Ġsc": 2702,
      "Ġscenarios": 2703,
      "Ġoption": 2704,
      "Ġfrost": 2705,
      "Ġmass": 2706,
      "Ġtouch": 2707,
      "ently": 2708,
      "elf": 2709,
      "Ġconduct": 2710,
      "oder": 2711,
      "Ġdeg": 2712,
      "ustrial": 2713,
      "Ġinterfaces": 2714,
      "Ġbutton": 2715,
      "Ġvariable": 2716,
      "ĠÂ°": 2717,
      "Ġacross": 2718,
      "Ġmotion": 2719,
      "IM": 2720,
      "aut": 2721,
      "rated": 2722,
      "whe": 2723,
      "inary": 2724,
      "rehen": 2725,
      "engine": 2726,
      "ason": 2727,
      "ily": 2728,
      "imes": 2729,
      "ĠRed": 2730,
      "planes": 2731,
      "resents": 2732,
      "ĠâĢĵ": 2733,
      "experiment": 2734,
      "Ġjob": 2735,
      "prompt": 2736,
      "ĠApplied": 2737,
      "Ġincreases": 2738,
      "ðĿĲ": 2739,
      "arget": 2740,
      "Select": 2741,
      "ĠManagement": 2742,
      "Ġlongitudinal": 2743,
      "ĠZh": 2744,
      "ibliograph": 2745,
      "Co": 2746,
      "Port": 2747,
      "pri": 2748,
      "ining": 2749,
      "ick": 2750,
      "ĠMH": 2751,
      "Ġright": 2752,
      "ipment": 2753,
      "Ġspecified": 2754,
      "Ġupdate": 2755,
      "Ġobser": 2756,
      "Ġdeflection": 2757,
      "Ġparameter": 2758,
      "Ġdatab": 2759,
      "Ġreduced": 2760,
      "Ġknown": 2761,
      "mitted": 2762,
      "ometry": 2763,
      "Ġproblem": 2764,
      "Ġrequest": 2765,
      "Run": 2766,
      "cial": 2767,
      "ture": 2768,
      "Ġmonitoring": 2769,
      "iler": 2770,
      "state": 2771,
      "Ġuses": 2772,
      "Ġservices": 2773,
      "astic": 2774,
      "process": 2775,
      "Ġconnections": 2776,
      "Ġregion": 2777,
      "posed": 2778,
      "Ġconsidered": 2779,
      "annel": 2780,
      "Ġfrequency": 2781,
      "áĪºÝĲ": 2782,
      "áĪºÝĲáĪ»": 2783,
      "DL": 2784,
      "such": 2785,
      "Ġtable": 2786,
      "ital": 2787,
      "Ġfighter": 2788,
      "Ġdensity": 2789,
      "Ġmenu": 2790,
      "Ġconver": 2791,
      "Ġstr": 2792,
      "Ġhard": 2793,
      "Ġyaw": 2794,
      "Ġrod": 2795,
      "Ġroot": 2796,
      "izard": 2797,
      "ĠInd": 2798,
      "ĠBo": 2799,
      "ibility": 2800,
      "Ġgeneration": 2801,
      "Ġupd": 2802,
      "Ġcommun": 2803,
      "Ġcombustion": 2804,
      "Ġderivative": 2805,
      "ategory": 2806,
      "Ġfeatures": 2807,
      "Ġcriteria": 2808,
      "Ġlarger": 2809,
      "76": 2810,
      "79": 2811,
      "It": 2812,
      "nel": 2813,
      "udder": 2814,
      "Ġtag": 2815,
      "Ġpsi": 2816,
      "Ġdocument": 2817,
      "Ġbest": 2818,
      "Ġstrain": 2819,
      "ulation": 2820,
      "Ġ14": 2821,
      "Ġshort": 2822,
      "Ġdesigns": 2823,
      "Ġtemplates": 2824,
      "lient": 2825,
      "Ġadministr": 2826,
      "ĠApplication": 2827,
      "Ġproperties": 2828,
      "Ġconsists": 2829,
      "View": 2830,
      "mix": 2831,
      "sers": 2832,
      "sens": 2833,
      "Ġ>": 2834,
      "ctor": 2835,
      "Ġbar": 2836,
      "Ġbetter": 2837,
      "eting": 2838,
      "Ġefficiency": 2839,
      "ĠCPU": 2840,
      "Ġrim": 2841,
      "ective": 2842,
      "riction": 2843,
      "Ġpredic": 2844,
      "values": 2845,
      "Ġconsisting": 2846,
      "Ġtransl": 2847,
      "acopter": 2848,
      "Ġvarious": 2849,
      "Ġresponse": 2850,
      "ĠGenerative": 2851,
      "82": 2852,
      "CM": 2853,
      "IS": 2854,
      "bject": 2855,
      "ii": 2856,
      "me": 2857,
      "ww": 2858,
      "ench": 2859,
      "Ġmachine": 2860,
      "Ġwizard": 2861,
      "ĠAST": 2862,
      "Ġconfirm": 2863,
      "admin": 2864,
      "ĠFe": 2865,
      "ĠLL": 2866,
      "ĠLayer": 2867,
      "Ġsections": 2868,
      "Ġexhaust": 2869,
      "Ġdescent": 2870,
      "Ġiter": 2871,
      "Including": 2872,
      "ĠExpress": 2873,
      "Ġoperation": 2874,
      "Ġpositive": 2875,
      "Ġpropeller": 2876,
      "rehensive": 2877,
      "experimenter": 2878,
      "Cm": 2879,
      "vator": 2880,
      "Ġsk": 2881,
      "itle": 2882,
      "uter": 2883,
      "uture": 2884,
      "Ġsto": 2885,
      "ĠMaster": 2886,
      "ĠMethod": 2887,
      "ĠFunctions": 2888,
      "istance": 2889,
      "agn": 2890,
      "though": 2891,
      "illust": 2892,
      "ogn": 2893,
      "Ġapproxim": 2894,
      "Ġconstruct": 2895,
      "Ġlimited": 2896,
      "Ġsolid": 2897,
      "Ġlogic": 2898,
      "Ġdirectly": 2899,
      "Ġpresented": 2900,
      "hentication": 2901,
      "Ġnavigation": 2902,
      "iversity": 2903,
      "PR": 2904,
      "Val": 2905,
      "cated": 2906,
      "oper": 2907,
      "po": 2908,
      "Â¯": 2909,
      "ÃĹ": 2910,
      "ĊČČ": 2911,
      "information": 2912,
      "rest": 2913,
      "Ġfiles": 2914,
      "Ġpat": 2915,
      "ĠST": 2916,
      "urb": 2917,
      "Ġ11": 2918,
      "ĠPre": 2919,
      "Ġvol": 2920,
      "izon": 2921,
      "ĠURL": 2922,
      "cont": 2923,
      "ĠStandard": 2924,
      "Ġresulting": 2925,
      "Ġdiff": 2926,
      "ĠVLANs": 2927,
      "Ref": 2928,
      "Ġactive": 2929,
      "Ġseconds": 2930,
      "Ġoccurs": 2931,
      "Ġcrankshaft": 2932,
      "Ġelectro": 2933,
      "46": 2934,
      "88": 2935,
      "enc": 2936,
      "Ġreview": 2937,
      "Ġnow": 2938,
      "umn": 2939,
      "izes": 2940,
      "ĠOptim": 2941,
      "itions": 2942,
      "Ġspecify": 2943,
      "Ġcontaining": 2944,
      "Ġmoment": 2945,
      "ternal": 2946,
      "Ġnetworks": 2947,
      "Ġsecrets": 2948,
      "erodynamics": 2949,
      "Ġdistance": 2950,
      "Ġcircuit": 2951,
      "Cn": 2952,
      "OM": 2953,
      "Ġcard": 2954,
      "Ġflexible": 2955,
      "chron": 2956,
      "irt": 2957,
      "Ġdeploy": 2958,
      "2022": 2959,
      "ĠThesis": 2960,
      "tered": 2961,
      "Ġcontact": 2962,
      "echnical": 2963,
      "ĠIPv": 2964,
      "Ġedge": 2965,
      "Ġformat": 2966,
      "Ġmaneuver": 2967,
      "Sh": 2968,
      "functions": 2969,
      "which": 2970,
      "Ġcell": 2971,
      "Ġpane": 2972,
      "Ġmark": 2973,
      "Ġmission": 2974,
      "igen": 2975,
      "ĠAD": 2976,
      "use": 2977,
      "ĠSu": 2978,
      "Ġnode": 2979,
      "Ġnext": 2980,
      "ĠMRP": 2981,
      "Ġorgan": 2982,
      "istory": 2983,
      "Ġvs": 2984,
      "ĠBy": 2985,
      "ĠName": 2986,
      "Ġgenerate": 2987,
      "acing": 2988,
      "Ġtests": 2989,
      "Ġoptimization": 2990,
      "Ġconceptual": 2991,
      "Ġdiï¬Ģerent": 2992,
      "Ġobtained": 2993,
      "57": 2994,
      "noun": 2995,
      "work": 2996,
      "Ġtrim": 2997,
      "Ġaffect": 2998,
      "ream": 2999,
      "Ġsave": 3000,
      "Ġsaf": 3001,
      "Ġsaved": 3002,
      "Ġinvol": 3003,
      "Ġrese": 3004,
      "iral": 3005,
      "Ġhot": 3006,
      "ĠMetric": 3007,
      "Ġgas": 3008,
      "Ġexperi": 3009,
      "Ġrudder": 3010,
      "licopter": 3011,
      "ructural": 3012,
      "Ġserving": 3013,
      "Ġsoils": 3014,
      "49": 3015,
      "ging": 3016,
      "mart": 3017,
      "pose": 3018,
      "att": 3019,
      "Ġproject": 3020,
      "Ġprotocol": 3021,
      "ĠRec": 3022,
      "olds": 3023,
      "Ġsupports": 3024,
      "rounding": 3025,
      "Î´e": 3026,
      "Î´r": 3027,
      "Ġprogramming": 3028,
      "Ġbattery": 3029,
      "69": 3030,
      "Do": 3031,
      "lish": 3032,
      "âľ": 3033,
      "Ġtre": 3034,
      "Ġsur": 3035,
      "alf": 3036,
      "Ġft": 3037,
      "Ġmuch": 3038,
      "ĠAt": 3039,
      "unnel": 3040,
      "Ġnam": 3041,
      "Ġthose": 3042,
      "Ġstorage": 3043,
      "idth": 3044,
      "Ġcham": 3045,
      "Ġwheels": 3046,
      "Ġdisable": 3047,
      "nection": 3048,
      "Ġvariables": 3049,
      "Ġtesting": 3050,
      "Ġrelative": 3051,
      "ttps": 3052,
      "Ġknow": 3053,
      "Ġparticular": 3054,
      "Ġ.................................................................": 3055,
      "âľĵ": 3056,
      "name": 3057,
      "ĠĊ": 3058,
      "onst": 3059,
      "Ġslow": 3060,
      "Ġdamp": 3061,
      "Ġmesh": 3062,
      "ules": 3063,
      "ĠFilter": 3064,
      "ĠDocker": 3065,
      "Ġdepth": 3066,
      "2024": 3067,
      "Ġsequ": 3068,
      "Ġalarm": 3069,
      "ially": 3070,
      "Ġentry": 3071,
      "Ġmeans": 3072,
      "Ġreduction": 3073,
      "Î´a": 3074,
      "Ġpublic": 3075,
      "72": 3076,
      "Open": 3077,
      "Xiv": 3078,
      "field": 3079,
      "imp": 3080,
      "void": 3081,
      "using": 3082,
      "add": 3083,
      "ades": 3084,
      "Ġhyp": 3085,
      "Ġcop": 3086,
      "ĠVol": 3087,
      "quired": 3088,
      "mplete": 3089,
      "Ġexpand": 3090,
      "ATION": 3091,
      "Ġoperations": 3092,
      "plays": 3093,
      "ĠManual": 3094,
      "Ġdisplayed": 3095,
      "rimary": 3096,
      "Ġrouter": 3097,
      "Ġaxes": 3098,
      "Ġreceiv": 3099,
      "ĠTemplate": 3100,
      "Ġconï¬ģgurations": 3101,
      "ĠOrchestration": 3102,
      "Ġcatalogs": 3103,
      "Ass": 3104,
      "OS": 3105,
      "Th": 3106,
      "apt": 3107,
      "box": 3108,
      "uck": 3109,
      "Ġîģ": 3110,
      "Ġcrack": 3111,
      "level": 3112,
      "Ġoften": 3113,
      "ĠAer": 3114,
      "ĠSD": 3115,
      "ĠSyn": 3116,
      "ĠCBR": 3117,
      "ecycle": 3118,
      "ife": 3119,
      "ĠFig": 3120,
      "Ġenvironment": 3121,
      "ĠInt": 3122,
      "ĠConference": 3123,
      "Ġ50": 3124,
      "aving": 3125,
      "Ġattack": 3126,
      "cular": 3127,
      "Ġgeometry": 3128,
      "Ġsolution": 3129,
      "Ġprivate": 3130,
      "Ġsensors": 3131,
      "ĠSecrets": 3132,
      "56": 3133,
      "UL": 3134,
      "get": 3135,
      "vision": 3136,
      "xacopter": 3137,
      "Ġsuper": 3138,
      "Ġfailure": 3139,
      "Ġlight": 3140,
      "Ġcovered": 3141,
      "Ġbearing": 3142,
      "ĠRing": 3143,
      "Ġmodes": 3144,
      "ĠJournal": 3145,
      "Ġprep": 3146,
      "Ġ199": 3147,
      "Ġcommon": 3148,
      "tenance": 3149,
      "Ġtouchdown": 3150,
      "ibliographies": 3151,
      "Id": 3152,
      "SON": 3153,
      "bor": 3154,
      "comm": 3155,
      "go": 3156,
      "lb": 3157,
      "scenario": 3158,
      "tom": 3159,
      "Ġbra": 3160,
      "Ġball": 3161,
      "Ġbank": 3162,
      "igital": 3163,
      "âĢľ": 3164,
      "Ġglobal": 3165,
      "ĠPer": 3166,
      "igned": 3167,
      "Ġalways": 3168,
      "ĠUsing": 3169,
      "aging": 3170,
      "âĪĨ": 3171,
      "claim": 3172,
      "ĠStratix": 3173,
      "Ġmanually": 3174,
      "Ġcontainers": 3175,
      "Ġexpected": 3176,
      "ports": 3177,
      "ĠModels": 3178,
      "Ġpassword": 3179,
      "medi": 3180,
      "Ġoriginal": 3181,
      "Valid": 3182,
      "CR": 3183,
      "Ix": 3184,
      "rum": 3185,
      "hell": 3186,
      "atas": 3187,
      "Ġcur": 3188,
      "Ġpp": 3189,
      "Ġpotential": 3190,
      "Ġmem": 3191,
      "Ġtoo": 3192,
      "usion": 3193,
      "Ġ13": 3194,
      "ĠMult": 3195,
      "deg": 3196,
      "ĠInternational": 3197,
      "ĠBase": 3198,
      "ĠHSR": 3199,
      "Ġlearn": 3200,
      "Ġincreasing": 3201,
      "ĠAdmin": 3202,
      "Ġequal": 3203,
      "Appears": 3204,
      "Ġsimulation": 3205,
      "ysical": 3206,
      "MMS": 3207,
      "Ġprocedures": 3208,
      "enchmark": 3209,
      "55": 3210,
      "Filter": 3211,
      "New": 3212,
      "WD": 3213,
      "az": 3214,
      "access": 3215,
      "lies": 3216,
      "wise": 3217,
      "Ġsitu": 3218,
      "Ġanother": 3219,
      "rag": 3220,
      "Ġstiff": 3221,
      "ift": 3222,
      "Ġasp": 3223,
      "Ġcomplet": 3224,
      "hickness": 3225,
      "aged": 3226,
      "Ġheat": 3227,
      "Ġrequires": 3228,
      "Ġcollections": 3229,
      "Ġexpress": 3230,
      "ĠSettings": 3231,
      "rame": 3232,
      "Ġ004": 3233,
      "Ġintrodu": 3234,
      "weight": 3235,
      "Ġmanufacturing": 3236,
      "Ġtasks": 3237,
      "'ve": 3238,
      "CI": 3239,
      "oop": 3240,
      "por": 3241,
      "Ġillust": 3242,
      "inst": 3243,
      "Ġclient": 3244,
      "rott": 3245,
      "Ġrele": 3246,
      "ĠTechnology": 3247,
      "Ġstop": 3248,
      "ateway": 3249,
      "lyte": 3250,
      "ulated": 3251,
      "Ġ2017": 3252,
      "Ġmanage": 3253,
      "Ġjust": 3254,
      "acity": 3255,
      "Ġprocesses": 3256,
      "oundary": 3257,
      "Ġindivid": 3258,
      "Ġequipment": 3259,
      "Appendix": 3260,
      "olean": 3261,
      "Ġremove": 3262,
      "Ġjoints": 3263,
      "Ġimprove": 3264,
      "bug": 3265,
      "rin": 3266,
      "Ġaction": 3267,
      "Ġfree": 3268,
      "Ġduct": 3269,
      "Ġforces": 3270,
      "Ġthus": 3271,
      "Ġlast": 3272,
      "pping": 3273,
      "ppos": 3274,
      "ĠIN": 3275,
      "Ġexamples": 3276,
      "Ġalgorith": 3277,
      "Ġensure": 3278,
      "Ġ327": 3279,
      "Ġsufficient": 3280,
      "execut": 3281,
      "Ġhelicopter": 3282,
      "axial": 3283,
      "ĠReg": 3284,
      "cipl": 3285,
      "Ġclosed": 3286,
      "General": 3287,
      "wheel": 3288,
      "NMP": 3289,
      "VLAN": 3290,
      "à¯": 3291,
      "edia": 3292,
      "ĠCl": 3293,
      "Ġlink": 3294,
      "sepower": 3295,
      "ĠEdit": 3296,
      "ĠNote": 3297,
      "ĠCont": 3298,
      "Ġsubs": 3299,
      "ĠJSON": 3300,
      "ongitudinal": 3301,
      "Ġcolor": 3302,
      "Ġvertical": 3303,
      "Ġminim": 3304,
      "ĠUniversity": 3305,
      "Ġphase": 3306,
      "Ġinstrument": 3307,
      "Ġdeveloped": 3308,
      "Ġdevelopment": 3309,
      "ournalism": 3310,
      "Ġlabels": 3311,
      "rottle": 3312,
      "EP": 3313,
      "GET": 3314,
      "cient": 3315,
      "wn": 3316,
      "Í²": 3317,
      "Ġtile": 3318,
      "Ġsy": 3319,
      "Ġmask": 3320,
      "Ġbi": 3321,
      "ĠSec": 3322,
      "Ġproposed": 3323,
      "ists": 3324,
      "uman": 3325,
      "deployment": 3326,
      "Ġaccount": 3327,
      "Ġinternal": 3328,
      "Ġattention": 3329,
      "ĠIDs": 3330,
      "tract": 3331,
      "Ġdatasets": 3332,
      "Ġprograms": 3333,
      "Ġlinear": 3334,
      "iï¬ģc": 3335,
      "Ġsteel": 3336,
      "41": 3337,
      "59": 3338,
      "LR": 3339,
      "No": 3340,
      "Sub": 3341,
      "Ġut": 3342,
      "Ġtip": 3343,
      "Ġailer": 3344,
      "orld": 3345,
      "Ġcause": 3346,
      "Ġcourse": 3347,
      "Ġinf": 3348,
      "Ġbal": 3349,
      "Ġbuil": 3350,
      "ĠAll": 3351,
      "ĠSince": 3352,
      "ĠCIP": 3353,
      "Ġlateral": 3354,
      "verse": 3355,
      "Ġcool": 3356,
      "Ġexcess": 3357,
      "ĠObject": 3358,
      "Ġcompos": 3359,
      "Ġsuccess": 3360,
      "Ġplate": 3361,
      "Ġarch": 3362,
      "Ġcolumn": 3363,
      "ounds": 3364,
      "Ġrelated": 3365,
      "Ġcharacters": 3366,
      "Ġcapabilities": 3367,
      "ospace": 3368,
      "ORT": 3369,
      "FAARFIELD": 3370,
      "Ġincludes": 3371,
      "ferences": 3372,
      "izontal": 3373,
      "94": 3374,
      "Access": 3375,
      "Comm": 3376,
      "Design": 3377,
      "gress": 3378,
      "oS": 3379,
      "trans": 3380,
      "vation": 3381,
      "ĠÎ¸": 3382,
      "Ġtherm": 3383,
      "Ġcount": 3384,
      "utch": 3385,
      "Ġhover": 3386,
      "Ġgl": 3387,
      "Ġ40": 3388,
      "ĠDeployments": 3389,
      "LIV": 3390,
      "Ġspecial": 3391,
      "Ġentire": 3392,
      "ritical": 3393,
      "Ġetc": 3394,
      "Ġsignal": 3395,
      "Ġcheckbox": 3396,
      "Ġcycle": 3397,
      "ĊĠĊĠĊĠĊĠ": 3398,
      "ĠService": 3399,
      "Ġfactors": 3400,
      "Ġretrie": 3401,
      "Ġmanufacture": 3402,
      "specific": 3403,
      "Ġemploy": 3404,
      "Ġlike": 3405,
      "sider": 3406,
      "Ġseveral": 3407,
      "aj": 3408,
      "gu": 3409,
      "ik": 3410,
      "ËĨ": 3411,
      "ïĢ": 3412,
      "Ġavoid": 3413,
      "Ġschedule": 3414,
      "Ġcou": 3415,
      "ited": 3416,
      "Ġinteg": 3417,
      "arat": 3418,
      "Ġbene": 3419,
      "losed": 3420,
      "ĠSub": 3421,
      "Ġstill": 3422,
      "ĠMach": 3423,
      "ĠLA": 3424,
      "ores": 3425,
      "Ġairplanes": 3426,
      "Ġ2020": 3427,
      "Ġ2018": 3428,
      "ï¬ĥ": 3429,
      "Ġsubbase": 3430,
      "contain": 3431,
      "Ġassess": 3432,
      "Ġblades": 3433,
      "oxy": 3434,
      "Ġneeds": 3435,
      "aircraft": 3436,
      "iques": 3437,
      "ceedings": 3438,
      "Ġbasic": 3439,
      "ĠOverview": 3440,
      "Ġlibraries": 3441,
      "Ġwritten": 3442,
      "Ġhelp": 3443,
      "Ġrespectively": 3444,
      "ĊČČČ": 3445,
      "47": 3446,
      "AV": 3447,
      "BUS": 3448,
      "Cy": 3449,
      "cos": 3450,
      "group": 3451,
      "ĠâĪ": 3452,
      "oratory": 3453,
      "Ġwings": 3454,
      "Ġwake": 3455,
      "ĠAg": 3456,
      "loperations": 3457,
      "sequ": 3458,
      "Ġhy": 3459,
      "ottom": 3460,
      "ĠMOD": 3461,
      "Ġbeg": 3462,
      "Ġprofile": 3463,
      "ĠPh": 3464,
      "ayload": 3465,
      "Ġcomprehensive": 3466,
      "delete": 3467,
      "Ġship": 3468,
      "Ġaccord": 3469,
      "ditional": 3470,
      "Ġinputs": 3471,
      "layer": 3472,
      "most": 3473,
      "ĠÂ·": 3474,
      "Ġclose": 3475,
      "Ġcalculated": 3476,
      "Ġtools": 3477,
      "Ġcontinu": 3478,
      "Displays": 3479,
      "Ġstopped": 3480,
      "81": 3481,
      "EM": 3482,
      "What": 3483,
      "ĠÝ": 3484,
      "reak": 3485,
      "Ġswitches": 3486,
      "Ġpow": 3487,
      "ush": 3488,
      "imb": 3489,
      "Ġrings": 3490,
      "Ġ2024": 3491,
      "ends": 3492,
      "Ġdetailed": 3493,
      "Ġhexacopter": 3494,
      "Ġcomputing": 3495,
      "ĠAnalysis": 3496,
      "runk": 3497,
      "Ġagainst": 3498,
      "Ġtags": 3499,
      "54": 3500,
      "After": 3501,
      "FD": 3502,
      "TO": 3503,
      "sl": 3504,
      "system": 3505,
      "ïģ": 3506,
      "Ġ}": 3507,
      "ĠðĿĳ": 3508,
      "Ġtext": 3509,
      "isions": 3510,
      "roke": 3511,
      "loop": 3512,
      "ĠTyp": 3513,
      "uration": 3514,
      "002": 3515,
      "istic": 3516,
      "arth": 3517,
      "Ġresources": 3518,
      "Ġ2022": 3519,
      "Ġspace": 3520,
      "ynolds": 3521,
      "control": 3522,
      "Ġassum": 3523,
      "Ġacceler": 3524,
      "Ġsetting": 3525,
      "ĠExecutions": 3526,
      "ously": 3527,
      "ĠSection": 3528,
      "Ġappropri": 3529,
      "ĠRequirements": 3530,
      "Ġcomputers": 3531,
      "Ġwhat": 3532,
      "velopment": 3533,
      "Ġkeep": 3534,
      "Ġchanged": 3535,
      "entials": 3536,
      "Ġpoints": 3537,
      "defined": 3538,
      "Ġnegative": 3539,
      "ĠCDF": 3540,
      ".)": 3541,
      "71": 3542,
      "SM": 3543,
      "Yes": 3544,
      "gment": 3545,
      "poxy": 3546,
      "Ġaer": 3547,
      "ery": 3548,
      "orchestration": 3549,
      "Ġindex": 3550,
      "...": 3551,
      "lot": 3552,
      "uted": 3553,
      "unction": 3554,
      "Ġem": 3555,
      "ĠCol": 3556,
      "oll": 3557,
      "otal": 3558,
      "ĠAIAA": 3559,
      "tection": 3560,
      "There": 3561,
      "Ġleg": 3562,
      "Ġleft": 3563,
      "ugment": 3564,
      "Ġentering": 3565,
      "Ġimpact": 3566,
      "Ġperformed": 3567,
      "Ġauthor": 3568,
      "Ġrail": 3569,
      "Ġthick": 3570,
      "Ġactual": 3571,
      "Ġeffects": 3572,
      "Ġeffective": 3573,
      "Ġstored": 3574,
      "Ġcapability": 3575,
      "Ġzero": 3576,
      "Ġreturn": 3577,
      "Ġplacehold": 3578,
      "Security": 3579,
      "Ġcoordinate": 3580,
      "Ġrecommended": 3581,
      "Ġcorresponding": 3582,
      "encies": 3583,
      "irtual": 3584,
      "ĠAdminister": 3585,
      "Net": 3586,
      "Ste": 3587,
      "Î½": 3588,
      "Ġtarget": 3589,
      "Ġslight": 3590,
      "Ġcateg": 3591,
      "Ġfive": 3592,
      "Ġperson": 3593,
      "ĠSave": 3594,
      "raphic": 3595,
      "Ġconvent": 3596,
      "Ġhold": 3597,
      "vert": 3598,
      "ĠLab": 3599,
      "ĠRigid": 3600,
      "Ġexceed": 3601,
      "Ġround": 3602,
      "ĠOther": 3603,
      "Ġcomplex": 3604,
      "ĠInvestigate": 3605,
      "reshold": 3606,
      "ounter": 3607,
      "150": 3608,
      "Ġturbul": 3609,
      "ĠRuns": 3610,
      "ASA": 3611,
      "Ġcomponent": 3612,
      "Busi": 3613,
      "Ġlanguages": 3614,
      "Ġcrosswind": 3615,
      "ĠADA": 3616,
      "Ġcopy": 3617,
      "Ġreceived": 3618,
      "62": 3619,
      "SH": 3620,
      "Trans": 3621,
      "Work": 3622,
      "des": 3623,
      "evaluation": 3624,
      "has": 3625,
      "pid": 3626,
      "parameters": 3627,
      "vari": 3628,
      "wing": 3629,
      "zi": 3630,
      "à¬": 3631,
      "onom": 3632,
      "atch": 3633,
      "ertain": 3634,
      "ences": 3635,
      "any": 3636,
      "Ġoppos": 3637,
      "icast": 3638,
      "Ġinlet": 3639,
      "Ġlit": 3640,
      "verage": 3641,
      "Ġrow": 3642,
      "Ġlocation": 3643,
      "connect": 3644,
      "Ġapproaches": 3645,
      "Ġtherefore": 3646,
      "Ġfunctional": 3647,
      "Ġmulti": 3648,
      "Ġpool": 3649,
      "overn": 3650,
      "Ġsynchron": 3651,
      "Ġterms": 3652,
      "support": 3653,
      "Ġmixture": 3654,
      "Ġflaps": 3655,
      "ĠUpdate": 3656,
      "Ġestablish": 3657,
      "ĠLLM": 3658,
      "Ġresearch": 3659,
      "'ll": 3660,
      "1000": 3661,
      "Le": 3662,
      "ault": 3663,
      "atural": 3664,
      "Ġsent": 3665,
      "Ġfixed": 3666,
      "Ġfuture": 3667,
      "Ġins": 3668,
      "oud": 3669,
      "Ġepoxy": 3670,
      "ident": 3671,
      "ĠMark": 3672,
      "ĠDynamics": 3673,
      "ĠPavements": 3674,
      "Ġyears": 3675,
      "Ġalong": 3676,
      "Ġalph": 3677,
      "depend": 3678,
      "hicles": 3679,
      "ĠWith": 3680,
      "lected": 3681,
      "clud": 3682,
      "resource": 3683,
      "ĠĠĠĠĠĠĠĠĠĠĠ": 3684,
      "minal": 3685,
      "ĠAppendix": 3686,
      "Ġprocessing": 3687,
      "Ġnozz": 3688,
      "calcul": 3689,
      "ĠKey": 3690,
      "Ġlifecycle": 3691,
      "Ġdrain": 3692,
      "Ġactiv": 3693,
      "Ġlimits": 3694,
      "models": 3695,
      "Ġcombination": 3696,
      "Ġversions": 3697,
      "Ġfactor": 3698,
      "ĠShort": 3699,
      "ledge": 3700,
      "Ġdemonst": 3701,
      "Author": 3702,
      "Ġhorsepower": 3703,
      "Ġhardware": 3704,
      "Ġchamber": 3705,
      ".âĢĿ": 3706,
      "300": 3707,
      "42": 3708,
      "ID": 3709,
      "LS": 3710,
      "Te": 3711,
      "jarat": 3712,
      "pm": 3713,
      "tor": 3714,
      "enet": 3715,
      "ancy": 3716,
      "Ġoil": 3717,
      "roach": 3718,
      "Ġpipeline": 3719,
      "Ġtoward": 3720,
      "Ġblock": 3721,
      "usiness": 3722,
      "Ġnear": 3723,
      "ĠCourse": 3724,
      "Ġget": 3725,
      "ithium": 3726,
      "ival": 3727,
      "Ġ025": 3728,
      "ĠStore": 3729,
      "jected": 3730,
      "Ġgenerally": 3731,
      "ĠEng": 3732,
      "ĠReview": 3733,
      "Ġrotation": 3734,
      "beds": 3735,
      "Ġfeedback": 3736,
      "ĠYour": 3737,
      "Ġrespons": 3738,
      "Ġtimes": 3739,
      "ĠËĨÎ·": 3740,
      "ĠReport": 3741,
      "Ġupper": 3742,
      "claimer": 3743,
      "Ġstiffness": 3744,
      "Ġappropriate": 3745,
      "58": 3746,
      "92": 3747,
      "AF": 3748,
      "Edit": 3749,
      "Flow": 3750,
      "ement": 3751,
      "mosp": 3752,
      "ïĥ": 3753,
      "Ġ,": 3754,
      "inition": 3755,
      "rel": 3756,
      "Ġsides": 3757,
      "Ġpolicy": 3758,
      "Ġmagn": 3759,
      "Ġwater": 3760,
      "ĠAfter": 3761,
      "ĠAND": 3762,
      "ĠScenario": 3763,
      "ĠSmart": 3764,
      "ĠComm": 3765,
      "Ġthough": 3766,
      "Ġthrottle": 3767,
      "ulse": 3768,
      "ĠMLIV": 3769,
      "ĠDLR": 3770,
      "Ġassembly": 3771,
      "executions": 3772,
      "Ġupon": 3773,
      "known": 3774,
      "Ġdefine": 3775,
      "ceptual": 3776,
      "Ġprompts": 3777,
      "Ġimmedi": 3778,
      "Ġrecogn": 3779,
      "Ġîĩ": 3780,
      "Ġbelong": 3781,
      "ĠInterface": 3782,
      "Ġdetermined": 3783,
      "Ġelectrolyte": 3784,
      "Ġindividual": 3785,
      "Ġutil": 3786,
      "97": 3787,
      "CH": 3788,
      "Dire": 3789,
      "GAN": 3790,
      "Loop": 3791,
      "Number": 3792,
      "OF": 3793,
      "Pavement": 3794,
      "hile": 3795,
      "oot": 3796,
      "rast": 3797,
      "inu": 3798,
      "ret": 3799,
      "itation": 3800,
      "Ġdimens": 3801,
      "Ġinvest": 3802,
      "ouble": 3803,
      "Ġstage": 3804,
      "idd": 3805,
      "ĠImp": 3806,
      "ird": 3807,
      "ĠFlexible": 3808,
      "Ġexperiment": 3809,
      "tem": 3810,
      "ĠOne": 3811,
      "ustry": 3812,
      "Ġ23": 3813,
      "ruise": 3814,
      "ĠNe": 3815,
      "ople": 3816,
      "Ġ2019": 3817,
      "ems": 3818,
      "ĠChart": 3819,
      "ĠExample": 3820,
      "Ġrepresents": 3821,
      "acro": 3822,
      "1783": 3823,
      "Ġkind": 3824,
      "viation": 3825,
      "Ġregard": 3826,
      "Ġregistry": 3827,
      "Ġdownforce": 3828,
      "Ġdistribution": 3829,
      "Ġframes": 3830,
      "Ġpurpose": 3831,
      "Aircraft": 3832,
      "ĊĠĠĠĠĠĠĠ": 3833,
      "ajor": 3834,
      "ĠLATP": 3835,
      "63": 3836,
      "IMP": 3837,
      "OT": 3838,
      "number": 3839,
      "ĠÎ±": 3840,
      "Ġtunnel": 3841,
      "hem": 3842,
      "head": 3843,
      "Ġscale": 3844,
      "Ġmess": 3845,
      "Ġwt": 3846,
      "ĠAAA": 3847,
      "log": 3848,
      "ĠScenarios": 3849,
      "Ġconfig": 3850,
      "Ġeas": 3851,
      "ĠCA": 3852,
      "ecause": 3853,
      "ĠEvaluation": 3854,
      "osen": 3855,
      "Ġloop": 3856,
      "Ġcreating": 3857,
      "Ġtransfer": 3858,
      "Ġrapid": 3859,
      "ĠAirport": 3860,
      "Ġoptimal": 3861,
      "ufacturing": 3862,
      "Ġextended": 3863,
      "Ġmodules": 3864,
      "Ġframe": 3865,
      "ĠTherefore": 3866,
      "Ġbehav": 3867,
      "ĠZhang": 3868,
      "ĠBoolean": 3869,
      "Ġconstructed": 3870,
      "Ġpattern": 3871,
      "Ġîģ¶": 3872,
      "gether": 3873,
      ".%": 3874,
      "Ph": 3875,
      "bit": 3876,
      "cast": 3877,
      "ius": 3878,
      "kg": 3879,
      "pressure": 3880,
      "vides": 3881,
      "ĊĠĠĠ": 3882,
      "Ġaim": 3883,
      "Ġsumm": 3884,
      "anning": 3885,
      "Ġdam": 3886,
      "arly": 3887,
      "ĠAvailable": 3888,
      "elines": 3889,
      "ili": 3890,
      "ĠCycle": 3891,
      "ĠRust": 3892,
      "ï£®": 3893,
      "ï£¹": 3894,
      "undancy": 3895,
      "Ġgross": 3896,
      "anges": 3897,
      "Ġhence": 3898,
      "ANT": 3899,
      "Ġleast": 3900,
      "Cont": 3901,
      "Ġupset": 3902,
      "atures": 3903,
      "Ġloading": 3904,
      "âĨĵ": 3905,
      "Ġequations": 3906,
      "Ġcommand": 3907,
      "tifacts": 3908,
      "erivatives": 3909,
      "object": 3910,
      "Ġstudies": 3911,
      "Ġextens": 3912,
      "volution": 3913,
      "ĠÏķ": 3914,
      "ĠRepositor": 3915,
      "Ġguid": 3916,
      "ĠSystems": 3917,
      "Ġpractice": 3918,
      "Ġdatabase": 3919,
      "Ġdamping": 3920,
      "ĠMODBUS": 3921,
      "52": 3922,
      "68": 3923,
      "91": 3924,
      "Optional": 3925,
      "SE": 3926,
      "Set": 3927,
      "Search": 3928,
      "ger": 3929,
      "high": 3930,
      "method": 3931,
      "sc": 3932,
      "tip": 3933,
      "Î¶": 3934,
      "Ġtail": 3935,
      "hes": 3936,
      "alle": 3937,
      "icro": 3938,
      "Ġinference": 3939,
      "raight": 3940,
      "Ġevery": 3941,
      "ading": 3942,
      "ĠII": 3943,
      "ĠIO": 3944,
      "ĠFighter": 3945,
      "ĠPri": 3946,
      "ĠRel": 3947,
      "ectrum": 3948,
      "ublic": 3949,
      "ĠEqu": 3950,
      "tempt": 3951,
      "Ġairport": 3952,
      "ĠBas": 3953,
      "ĠVe": 3954,
      "duced": 3955,
      "Ġ5200": 3956,
      "Ġable": 3957,
      "ĠarXiv": 3958,
      "Ġengineer": 3959,
      "ENT": 3960,
      "Ġparts": 3961,
      "ĠResearch": 3962,
      "Ġindicates": 3963,
      "ĠĠĠĠĠĠĠĠĠĠĠĠĠĠĠĠĠĠĠĠĠĠĠĠĠĠĠĠĠĠĠĠ": 3964,
      "Ġmatch": 3965,
      "Ġelevator": 3966,
      "Ġdiscussed": 3967,
      "umeric": 3968,
      "Ġupdated": 3969,
      "Ġdrainage": 3970,
      "Ġmagnitude": 3971,
      "allel": 3972,
      "96": 3973,
      "EU": 3974,
      "GT": 3975,
      "NS": 3976,
      "Up": 3977,
      "dist": 3978,
      "dentials": 3979,
      "times": 3980,
      "vity": 3981,
      "vents": 3982,
      "||": 3983,
      "Ġfew": 3984,
      "Ġflying": 3985,
      "ications": 3986,
      "uscript": 3987,
      "ady": 3988,
      "Ġgases": 3989,
      "ighbor": 3990,
      "rue": 3991,
      "ĠNTP": 3992,
      "168": 3993,
      "Ġ60": 3994,
      "ĠReynolds": 3995,
      "ĠAdvanced": 3996,
      "Ġunderst": 3997,
      "Ġbecom": 3998,
      "Ġcapacity": 3999,
      "chedules": 4000,
      "ĠQoS": 4001,
      "Ġsimulations": 4002,
      "Ġrepositories": 4003,
      "generation": 4004,
      "ĠSpec": 4005,
      "Ġcamer": 4006,
      "Ġadministrator": 4007,
      "igenvalues": 4008,
      "ORTANT": 4009,
      "COM": 4010,
      "Su": 4011,
      "aution": 4012,
      "around": 4013,
      "lip": 4014,
      "rand": 4015,
      "Ġtire": 4016,
      "Ġaud": 4017,
      "Ġsin": 4018,
      "Ġsmo": 4019,
      "Ġown": 4020,
      "icult": 4021,
      "Ġmight": 4022,
      "Ġbottom": 4023,
      "ĠSome": 4024,
      "ĠSNMP": 4025,
      "Ġeconom": 4026,
      "ĠClick": 4027,
      "ĠCategory": 4028,
      "imin": 4029,
      "ures": 4030,
      "Ġhistory": 4031,
      "ĠPRP": 4032,
      "209": 4033,
      "Ġexpl": 4034,
      "ĠGi": 4035,
      "ĠConfigurations": 4036,
      "ĠConnection": 4037,
      "arent": 4038,
      "Ġplaced": 4039,
      "Ġ\"<": 4040,
      "Ġaggregate": 4041,
      "Ġdisplays": 4042,
      "without": 4043,
      "anner": 4044,
      "Ġcylinders": 4045,
      "EEE": 4046,
      "Ġdrive": 4047,
      "sensitive": 4048,
      "51": 4049,
      "73": 4050,
      "93": 4051,
      "Li": 4052,
      "Or": 4053,
      "RM": 4054,
      "TTP": 4055,
      "hib": 4056,
      "mission": 4057,
      "anumeric": 4058,
      "Ġfoc": 4059,
      "Ġprimary": 4060,
      "aser": 4061,
      "ĠSim": 4062,
      "Ġrecon": 4063,
      "ĠIEEE": 4064,
      "ĠMe": 4065,
      "004": 4066,
      "Ġseen": 4067,
      "rix": 4068,
      "artifact": 4069,
      "Ġ2016": 4070,
      "Ġnotation": 4071,
      "Ġsubmitted": 4072,
      "ographic": 4073,
      "Ġaccur": 4074,
      "Ġengineering": 4075,
      "Standard": 4076,
      "Ġmaintenance": 4077,
      "collection": 4078,
      "aracter": 4079,
      "Ġrelatively": 4080,
      "ĠAsphalt": 4081,
      "Ġguide": 4082,
      "Ġdecrease": 4083,
      "Ġslip": 4084,
      "corpor": 4085,
      "ĠLevel": 4086,
      "Ġpeople": 4087,
      "ĠMHz": 4088,
      "Ġtreat": 4089,
      "Ġsuccessful": 4090,
      "Ġmanufacturer": 4091,
      "IMPORTANT": 4092,
      ");": 4093,
      "*)": 4094,
      "78": 4095
    },
    "merges": [
      [
        "Ġ",
        "t"
      ],
      [
        "Ġ",
        "a"
      ],
      [
        "h",
        "e"
      ],
      [
        "i",
        "n"
      ],
      [
        "o",
        "n"
      ],
      [
        "r",
        "e"
      ],
      [
        "a",
        "t"
      ],
      [
        "Ġt",
        "he"
      ],
      [
        "e",
        "r"
      ],
      [
        "o",
        "r"
      ],
      [
        "Ġ",
        "s"
      ],
      [
        "Ġ",
        "c"
      ],
      [
        "e",
        "n"
      ],
      [
        "Ġ",
        "."
      ],
      [
        "i",
        "on"
      ],
      [
        "e",
        "s"
      ],
      [
        "e",
        "d"
      ],
      [
        "i",
        "t"
      ],
      [
        "a",
        "n"
      ],
      [
        "a",
        "l"
      ],
      [
        "i",
        "s"
      ],
      [
        "Ġ",
        "o"
      ],
      [
        "in",
        "g"
      ],
      [
        "r",
        "o"
      ],
      [
        "Ġa",
        "n"
      ],
      [
        "Ġ",
        "f"
      ],
      [
        "Ġ",
        "p"
      ],
      [
        "i",
        "c"
      ],
      [
        "Ġ",
        "d"
      ],
      [
        "l",
        "e"
      ],
      [
        "Ġ",
        "in"
      ],
      [
        "a",
        "r"
      ],
      [
        "Ġ",
        "m"
      ],
      [
        "Ġo",
        "f"
      ],
      [
        "c",
        "t"
      ],
      [
        "Ġan",
        "d"
      ],
      [
        "at",
        "ion"
      ],
      [
        "Ġt",
        "o"
      ],
      [
        "Ġ",
        "b"
      ],
      [
        "Ġ",
        "w"
      ],
      [
        ".",
        "."
      ],
      [
        "en",
        "t"
      ],
      [
        "o",
        "u"
      ],
      [
        "i",
        "g"
      ],
      [
        "a",
        "s"
      ],
      [
        "Ġ",
        "A"
      ],
      [
        "e",
        "t"
      ],
      [
        "e",
        "l"
      ],
      [
        "u",
        "s"
      ],
      [
        "l",
        "o"
      ],
      [
        "Ġ",
        "S"
      ],
      [
        "Ġ",
        "re"
      ],
      [
        "c",
        "h"
      ],
      [
        "Ġ",
        "Ġ"
      ],
      [
        "m",
        "p"
      ],
      [
        "c",
        "e"
      ],
      [
        "Ġ",
        "T"
      ],
      [
        "i",
        "l"
      ],
      [
        "Ġ",
        "is"
      ],
      [
        "u",
        "t"
      ],
      [
        "v",
        "e"
      ],
      [
        "r",
        "a"
      ],
      [
        "u",
        "n"
      ],
      [
        "Ġc",
        "on"
      ],
      [
        "Ġf",
        "or"
      ],
      [
        "Ġ",
        "e"
      ],
      [
        "Ġ",
        "n"
      ],
      [
        "Ġ",
        "C"
      ],
      [
        "â",
        "Ģ"
      ],
      [
        "a",
        "b"
      ],
      [
        "Ġt",
        "h"
      ],
      [
        "o",
        "d"
      ],
      [
        "u",
        "r"
      ],
      [
        "s",
        "t"
      ],
      [
        "m",
        "ent"
      ],
      [
        "i",
        "m"
      ],
      [
        "..",
        ".."
      ],
      [
        "Ġ",
        "l"
      ],
      [
        "Ġs",
        "t"
      ],
      [
        "Ġ",
        "("
      ],
      [
        "u",
        "re"
      ],
      [
        "e",
        "c"
      ],
      [
        "i",
        "d"
      ],
      [
        "at",
        "e"
      ],
      [
        "a",
        "d"
      ],
      [
        "l",
        "y"
      ],
      [
        "p",
        "p"
      ],
      [
        "Ġ",
        "I"
      ],
      [
        "u",
        "l"
      ],
      [
        "o",
        "l"
      ],
      [
        "i",
        "r"
      ],
      [
        "g",
        "e"
      ],
      [
        "Ġ",
        "on"
      ],
      [
        "Ġ",
        "1"
      ],
      [
        "s",
        "e"
      ],
      [
        "Ġ",
        "h"
      ],
      [
        "t",
        "er"
      ],
      [
        "i",
        "f"
      ],
      [
        "s",
        "s"
      ],
      [
        "o",
        "t"
      ],
      [
        "Ġ",
        "M"
      ],
      [
        "Ġ",
        "or"
      ],
      [
        "Ġ",
        "g"
      ],
      [
        "ct",
        "ion"
      ],
      [
        "it",
        "h"
      ],
      [
        "v",
        "er"
      ],
      [
        "0",
        "0"
      ],
      [
        "Ġc",
        "o"
      ],
      [
        "Ġ",
        "F"
      ],
      [
        "Ġ",
        "us"
      ],
      [
        "Ġb",
        "e"
      ],
      [
        "Ġ",
        "D"
      ],
      [
        "Ġp",
        "ro"
      ],
      [
        "Ġd",
        "e"
      ],
      [
        "es",
        "s"
      ],
      [
        "a",
        "m"
      ],
      [
        "Ġ",
        "P"
      ],
      [
        "Ġa",
        "re"
      ],
      [
        "o",
        "w"
      ],
      [
        "is",
        "t"
      ],
      [
        "Ġw",
        "ith"
      ],
      [
        "Ġ",
        "L"
      ],
      [
        "q",
        "u"
      ],
      [
        "2",
        "0"
      ],
      [
        "o",
        "re"
      ],
      [
        "Ġ",
        "v"
      ],
      [
        "Ġ",
        "R"
      ],
      [
        "ou",
        "r"
      ],
      [
        "a",
        "y"
      ],
      [
        "Ġ",
        "y"
      ],
      [
        "Ġa",
        "s"
      ],
      [
        "Ġs",
        "e"
      ],
      [
        "f",
        "or"
      ],
      [
        "ĠT",
        "he"
      ],
      [
        "Ġe",
        "x"
      ],
      [
        "ab",
        "le"
      ],
      [
        "o",
        "m"
      ],
      [
        "ig",
        "n"
      ],
      [
        "Ġth",
        "at"
      ],
      [
        "t",
        "he"
      ],
      [
        "ĠA",
        "I"
      ],
      [
        "or",
        "t"
      ],
      [
        "it",
        "y"
      ],
      [
        "Ġ",
        "r"
      ],
      [
        "Ġc",
        "an"
      ],
      [
        "u",
        "m"
      ],
      [
        "r",
        "i"
      ],
      [
        "Ġa",
        "l"
      ],
      [
        "e",
        "ct"
      ],
      [
        "u",
        "b"
      ],
      [
        "Ġ",
        "E"
      ],
      [
        "c",
        "k"
      ],
      [
        "a",
        "ge"
      ],
      [
        "an",
        "d"
      ],
      [
        "Ġc",
        "h"
      ],
      [
        "for",
        "m"
      ],
      [
        "ĠĠ",
        "ĠĠ"
      ],
      [
        "Ġm",
        "od"
      ],
      [
        "a",
        "ve"
      ],
      [
        "p",
        "t"
      ],
      [
        "....",
        "...."
      ],
      [
        "ig",
        "h"
      ],
      [
        "a",
        "in"
      ],
      [
        "i",
        "ve"
      ],
      [
        "u",
        "p"
      ],
      [
        "âĢ",
        "¢"
      ],
      [
        "lo",
        "w"
      ],
      [
        "er",
        "s"
      ],
      [
        "A",
        "P"
      ],
      [
        "Ġ",
        "ro"
      ],
      [
        "in",
        "e"
      ],
      [
        "t",
        "e"
      ],
      [
        "ation",
        "s"
      ],
      [
        "Ġa",
        "pp"
      ],
      [
        "T",
        "he"
      ],
      [
        "i",
        "z"
      ],
      [
        "f",
        "ig"
      ],
      [
        "at",
        "ed"
      ],
      [
        "l",
        "ic"
      ],
      [
        "Ġb",
        "y"
      ],
      [
        "Ġ",
        "en"
      ],
      [
        "re",
        "ss"
      ],
      [
        "Ġa",
        "ir"
      ],
      [
        "e",
        "w"
      ],
      [
        "Ġ",
        "O"
      ],
      [
        "ul",
        "t"
      ],
      [
        "d",
        "d"
      ],
      [
        "Ġa",
        "t"
      ],
      [
        "o",
        "s"
      ],
      [
        "Ġco",
        "mp"
      ],
      [
        "ro",
        "m"
      ],
      [
        "i",
        "re"
      ],
      [
        "p",
        "e"
      ],
      [
        "d",
        "e"
      ],
      [
        "a",
        "il"
      ],
      [
        "as",
        "e"
      ],
      [
        "Ġd",
        "es"
      ],
      [
        "o",
        "se"
      ],
      [
        "Ġ",
        "G"
      ],
      [
        "i",
        "v"
      ],
      [
        "i",
        "al"
      ],
      [
        "es",
        "t"
      ],
      [
        "Ġcon",
        "t"
      ],
      [
        "p",
        "er"
      ],
      [
        "us",
        "t"
      ],
      [
        "Ġ",
        "it"
      ],
      [
        "f",
        "t"
      ],
      [
        "Ġ",
        "["
      ],
      [
        "ĠI",
        "n"
      ],
      [
        "f",
        "a"
      ],
      [
        "ar",
        "t"
      ],
      [
        "p",
        "l"
      ],
      [
        "Ġre",
        "s"
      ],
      [
        "c",
        "c"
      ],
      [
        "Ċ",
        "Ġ"
      ],
      [
        "Ġ",
        "2"
      ],
      [
        "al",
        "u"
      ],
      [
        "r",
        "u"
      ],
      [
        "Ġ",
        "B"
      ],
      [
        "e",
        "re"
      ],
      [
        "Ġs",
        "h"
      ],
      [
        "ar",
        "i"
      ],
      [
        "Ġf",
        "rom"
      ],
      [
        "or",
        "k"
      ],
      [
        "Ġ",
        "N"
      ],
      [
        "igh",
        "t"
      ],
      [
        "h",
        "ic"
      ],
      [
        "en",
        "er"
      ],
      [
        "f",
        "f"
      ],
      [
        "a",
        "un"
      ],
      [
        "Ġmod",
        "el"
      ],
      [
        "Ġ",
        "V"
      ],
      [
        "Ġ",
        "H"
      ],
      [
        "Ġy",
        "ou"
      ],
      [
        "n",
        "t"
      ],
      [
        "ch",
        "p"
      ],
      [
        "ic",
        "al"
      ],
      [
        "p",
        "lo"
      ],
      [
        "Ġ",
        "W"
      ],
      [
        "o",
        "p"
      ],
      [
        "form",
        "ation"
      ],
      [
        "o",
        "ose"
      ],
      [
        "d",
        "u"
      ],
      [
        "Ġ",
        "20"
      ],
      [
        "i",
        "p"
      ],
      [
        "r",
        "an"
      ],
      [
        "it",
        "ion"
      ],
      [
        "ï",
        "£"
      ],
      [
        "i",
        "es"
      ],
      [
        "ar",
        "d"
      ],
      [
        "ment",
        "s"
      ],
      [
        "al",
        "l"
      ],
      [
        "a",
        "ch"
      ],
      [
        "chp",
        "ad"
      ],
      [
        "aun",
        "chpad"
      ],
      [
        "Ġw",
        "he"
      ],
      [
        "Ġ",
        "U"
      ],
      [
        "e",
        "m"
      ],
      [
        "Ġn",
        "ot"
      ],
      [
        "it",
        "ch"
      ],
      [
        "b",
        "er"
      ],
      [
        "Ġs",
        "p"
      ],
      [
        "Ġ",
        "lo"
      ],
      [
        "Ġa",
        "dd"
      ],
      [
        "c",
        "re"
      ],
      [
        "a",
        "ct"
      ],
      [
        "Y",
        "ou"
      ],
      [
        "Ġ",
        "3"
      ],
      [
        "le",
        "ct"
      ],
      [
        "as",
        "s"
      ],
      [
        "fig",
        "ur"
      ],
      [
        "t",
        "o"
      ],
      [
        "ĠL",
        "aunchpad"
      ],
      [
        "ĠS",
        "AP"
      ],
      [
        "an",
        "ce"
      ],
      [
        "a",
        "g"
      ],
      [
        "c",
        "he"
      ],
      [
        "ĠC",
        "on"
      ],
      [
        "a",
        "p"
      ],
      [
        "1",
        "0"
      ],
      [
        "ï",
        "¬"
      ],
      [
        ")",
        "."
      ],
      [
        "r",
        "ic"
      ],
      [
        "Ġs",
        "u"
      ],
      [
        "Ġ",
        "5"
      ],
      [
        "Ġm",
        "ore"
      ],
      [
        "Ġdes",
        "ign"
      ],
      [
        "plo",
        "y"
      ],
      [
        "v",
        "ic"
      ],
      [
        "Ġy",
        "our"
      ],
      [
        "id",
        "e"
      ],
      [
        "at",
        "a"
      ],
      [
        "an",
        "t"
      ],
      [
        "y",
        "n"
      ],
      [
        "am",
        "e"
      ],
      [
        "un",
        "d"
      ],
      [
        "c",
        "ed"
      ],
      [
        "i",
        "ew"
      ],
      [
        "a",
        "re"
      ],
      [
        "w",
        "itch"
      ],
      [
        "I",
        "n"
      ],
      [
        "Ġse",
        "e"
      ],
      [
        "ab",
        "il"
      ],
      [
        "â",
        "Ī"
      ],
      [
        "u",
        "al"
      ],
      [
        "en",
        "d"
      ],
      [
        "u",
        "d"
      ],
      [
        "2",
        "5"
      ],
      [
        "Ġin",
        "formation"
      ],
      [
        "Ġs",
        "ub"
      ],
      [
        "i",
        "b"
      ],
      [
        "the",
        "r"
      ],
      [
        "k",
        "e"
      ],
      [
        "Ġr",
        "un"
      ],
      [
        "c",
        "on"
      ],
      [
        "Ġt",
        "ra"
      ],
      [
        "ĠF",
        "or"
      ],
      [
        "t",
        "h"
      ],
      [
        "........",
        "........"
      ],
      [
        "ig",
        "ure"
      ],
      [
        "Ġus",
        "e"
      ],
      [
        "1",
        "2"
      ],
      [
        "in",
        "d"
      ],
      [
        "im",
        "e"
      ],
      [
        "il",
        "l"
      ],
      [
        "Ġus",
        "ed"
      ],
      [
        "figur",
        "ation"
      ],
      [
        "o",
        "g"
      ],
      [
        "Ġth",
        "is"
      ],
      [
        "c",
        "ra"
      ],
      [
        "el",
        "l"
      ],
      [
        "pt",
        "ion"
      ],
      [
        "Ġ",
        "0"
      ],
      [
        "c",
        "l"
      ],
      [
        "e",
        "ch"
      ],
      [
        "cra",
        "ft"
      ],
      [
        "_",
        "_"
      ],
      [
        "e",
        "ar"
      ],
      [
        "Ġp",
        "er"
      ],
      [
        "qu",
        "ire"
      ],
      [
        "ut",
        "ion"
      ],
      [
        "hic",
        "h"
      ],
      [
        "Â",
        "ł"
      ],
      [
        "Ġd",
        "et"
      ],
      [
        "en",
        "s"
      ],
      [
        "ĠS",
        "t"
      ],
      [
        "o",
        "c"
      ],
      [
        "Ġ",
        "="
      ],
      [
        "re",
        "s"
      ],
      [
        "mp",
        "l"
      ],
      [
        "Ġg",
        "ro"
      ],
      [
        "c",
        "es"
      ],
      [
        "Ġm",
        "et"
      ],
      [
        "mp",
        "t"
      ],
      [
        "if",
        "ic"
      ],
      [
        "our",
        "ce"
      ],
      [
        "at",
        "ive"
      ],
      [
        "Ġh",
        "ave"
      ],
      [
        "ow",
        "n"
      ],
      [
        "an",
        "g"
      ],
      [
        "Ġ",
        "âĢ"
      ],
      [
        "Ġa",
        "ss"
      ],
      [
        "an",
        "e"
      ],
      [
        "c",
        "en"
      ],
      [
        "ar",
        "y"
      ],
      [
        "j",
        "ect"
      ],
      [
        "et",
        "w"
      ],
      [
        "e",
        "x"
      ],
      [
        "i",
        "x"
      ],
      [
        "ro",
        "l"
      ],
      [
        "cen",
        "ari"
      ],
      [
        "Ġw",
        "hich"
      ],
      [
        "l",
        "d"
      ],
      [
        "S",
        "AP"
      ],
      [
        "ran",
        "s"
      ],
      [
        "Ġ",
        "he"
      ],
      [
        "Ġ",
        "ĊĠ"
      ],
      [
        "at",
        "er"
      ],
      [
        "A",
        "N"
      ],
      [
        "Ġ",
        "-"
      ],
      [
        "Ġg",
        "ener"
      ],
      [
        "Ġ",
        "4"
      ],
      [
        "Ġa",
        "cc"
      ],
      [
        "ĠD",
        "e"
      ],
      [
        "Ġ",
        "le"
      ],
      [
        "c",
        "ri"
      ],
      [
        "ab",
        "l"
      ],
      [
        "g",
        "ine"
      ],
      [
        "Ġ",
        "J"
      ],
      [
        "Ġv",
        "alu"
      ],
      [
        "ave",
        "ment"
      ],
      [
        "ru",
        "ct"
      ],
      [
        "v",
        "el"
      ],
      [
        "ĠĠĠĠ",
        "ĠĠĠĠ"
      ],
      [
        "p",
        "ut"
      ],
      [
        "ou",
        "t"
      ],
      [
        "y",
        "st"
      ],
      [
        "u",
        "g"
      ],
      [
        "m",
        "in"
      ],
      [
        "ction",
        "s"
      ],
      [
        "at",
        "es"
      ],
      [
        "mp",
        "le"
      ],
      [
        "in",
        "t"
      ],
      [
        "âĢ",
        "Ŀ"
      ],
      [
        "f",
        "ere"
      ],
      [
        "Ġd",
        "is"
      ],
      [
        "ff",
        "ic"
      ],
      [
        "c",
        "y"
      ],
      [
        "Ġus",
        "ing"
      ],
      [
        "]",
        "."
      ],
      [
        "y",
        "pe"
      ],
      [
        "ploy",
        "ment"
      ],
      [
        "ing",
        "s"
      ],
      [
        "a",
        "ck"
      ],
      [
        "yst",
        "em"
      ],
      [
        "it",
        "or"
      ],
      [
        "vic",
        "e"
      ],
      [
        "he",
        "r"
      ],
      [
        "Ġre",
        "quire"
      ],
      [
        "Ġch",
        "oose"
      ],
      [
        "L",
        "I"
      ],
      [
        "ĠC",
        "h"
      ],
      [
        "ou",
        "ld"
      ],
      [
        "e",
        "p"
      ],
      [
        "Ġm",
        "an"
      ],
      [
        "Ġs",
        "er"
      ],
      [
        "c",
        "o"
      ],
      [
        "ou",
        "n"
      ],
      [
        "g",
        "ra"
      ],
      [
        "Ġ",
        "un"
      ],
      [
        "on",
        "g"
      ],
      [
        "Ġ",
        "i"
      ],
      [
        "ic",
        "s"
      ],
      [
        "Ġd",
        "ata"
      ],
      [
        "fa",
        "ce"
      ],
      [
        "c",
        "ess"
      ],
      [
        "Ġn",
        "um"
      ],
      [
        "ec",
        "re"
      ],
      [
        "r",
        "y"
      ],
      [
        "Ġp",
        "ort"
      ],
      [
        "el",
        "d"
      ],
      [
        "ĠâĢ",
        "ľ"
      ],
      [
        "r",
        "ation"
      ],
      [
        "n",
        "e"
      ],
      [
        "1",
        "6"
      ],
      [
        "F",
        "igure"
      ],
      [
        "Ġin",
        "st"
      ],
      [
        "i",
        "le"
      ],
      [
        "Ġp",
        "re"
      ],
      [
        "i",
        "a"
      ],
      [
        "P",
        "U"
      ],
      [
        "ail",
        "s"
      ],
      [
        "s",
        "o"
      ],
      [
        "1",
        "5"
      ],
      [
        "Ġc",
        "re"
      ],
      [
        "C",
        "on"
      ],
      [
        "Ġsp",
        "ec"
      ],
      [
        "Ġp",
        "l"
      ],
      [
        "le",
        "te"
      ],
      [
        "h",
        "is"
      ],
      [
        "i",
        "lo"
      ],
      [
        "en",
        "ce"
      ],
      [
        "ĠA",
        "ut"
      ],
      [
        "s",
        "ion"
      ],
      [
        "ol",
        "low"
      ],
      [
        "ow",
        "er"
      ],
      [
        "a",
        "v"
      ],
      [
        "lic",
        "k"
      ],
      [
        "h",
        "od"
      ],
      [
        "i",
        "eld"
      ],
      [
        "p",
        "h"
      ],
      [
        "v",
        "alu"
      ],
      [
        "Ġs",
        "witch"
      ],
      [
        "lic",
        "ation"
      ],
      [
        "p",
        "age"
      ],
      [
        "Ġon",
        "e"
      ],
      [
        "Ġro",
        "le"
      ],
      [
        "Ġair",
        "craft"
      ],
      [
        "Ġcon",
        "s"
      ],
      [
        "Ġco",
        "m"
      ],
      [
        "fig",
        "ure"
      ],
      [
        "pe",
        "ed"
      ],
      [
        "Ġt",
        "e"
      ],
      [
        "o",
        "f"
      ],
      [
        "as",
        "ed"
      ],
      [
        "Ġin",
        "ter"
      ],
      [
        "Ġal",
        "l"
      ],
      [
        "at",
        "ing"
      ],
      [
        "Ġpro",
        "v"
      ],
      [
        "Ġw",
        "ork"
      ],
      [
        "el",
        "y"
      ],
      [
        "1",
        "9"
      ],
      [
        "Ġcon",
        "figuration"
      ],
      [
        "Ġh",
        "as"
      ],
      [
        "s",
        "ing"
      ],
      [
        "he",
        "n"
      ],
      [
        "at",
        "or"
      ],
      [
        ".",
        ","
      ],
      [
        "Ġ",
        "up"
      ],
      [
        "k",
        "n"
      ],
      [
        "s",
        "is"
      ],
      [
        "Ġcont",
        "ain"
      ],
      [
        "l",
        "i"
      ],
      [
        "Ġf",
        "ollow"
      ],
      [
        "Ġres",
        "ult"
      ],
      [
        "u",
        "de"
      ],
      [
        "Ġcont",
        "rol"
      ],
      [
        "Ġgro",
        "up"
      ],
      [
        "on",
        "d"
      ],
      [
        "Ġa",
        "b"
      ],
      [
        "P",
        "ro"
      ],
      [
        "8",
        "3"
      ],
      [
        "C",
        "h"
      ],
      [
        "l",
        "ight"
      ],
      [
        "s",
        "er"
      ],
      [
        "Ġw",
        "e"
      ],
      [
        "l",
        "ass"
      ],
      [
        "Ġs",
        "et"
      ],
      [
        "yn",
        "am"
      ],
      [
        "Ġa",
        "r"
      ],
      [
        "o",
        "int"
      ],
      [
        "n",
        "ing"
      ],
      [
        "Ġex",
        "ec"
      ],
      [
        "Ġse",
        "lect"
      ],
      [
        "Ġo",
        "b"
      ],
      [
        "as",
        "t"
      ],
      [
        "abil",
        "ity"
      ],
      [
        "le",
        "ction"
      ],
      [
        "Ġo",
        "ut"
      ],
      [
        "âĪ",
        "Ĵ"
      ],
      [
        "Ġat",
        "t"
      ],
      [
        "l",
        "l"
      ],
      [
        "v",
        "ail"
      ],
      [
        "ecre",
        "t"
      ],
      [
        "ur",
        "ing"
      ],
      [
        "Ġon",
        "ly"
      ],
      [
        "am",
        "et"
      ],
      [
        ")",
        ","
      ],
      [
        "Ġw",
        "as"
      ],
      [
        "od",
        "e"
      ],
      [
        "Ġen",
        "gine"
      ],
      [
        "ĠE",
        "x"
      ],
      [
        "t",
        "ain"
      ],
      [
        "Ġw",
        "ill"
      ],
      [
        "Ġl",
        "ist"
      ],
      [
        "Ġnum",
        "ber"
      ],
      [
        "ou",
        "s"
      ],
      [
        "Ġ",
        "j"
      ],
      [
        "00",
        "0"
      ],
      [
        "Ġt",
        "rans"
      ],
      [
        "A",
        "A"
      ],
      [
        "1",
        "1"
      ],
      [
        "Ġre",
        "p"
      ],
      [
        "Ġn",
        "e"
      ],
      [
        "ĠP",
        "ro"
      ],
      [
        "A",
        "C"
      ],
      [
        "T",
        "o"
      ],
      [
        "an",
        "ge"
      ],
      [
        "Ġm",
        "o"
      ],
      [
        "LI",
        "C"
      ],
      [
        "âĢ",
        "Ļ"
      ],
      [
        "B",
        "LIC"
      ],
      [
        "ĠS",
        "e"
      ],
      [
        "PU",
        "BLIC"
      ],
      [
        "a",
        "x"
      ],
      [
        "ĠE",
        "n"
      ],
      [
        "pl",
        "ane"
      ],
      [
        "es",
        "ign"
      ],
      [
        "Ġo",
        "ver"
      ],
      [
        "Ġde",
        "ployment"
      ],
      [
        "Ġapp",
        "ro"
      ],
      [
        "Ġc",
        "ol"
      ],
      [
        "5",
        "0"
      ],
      [
        "n",
        "ce"
      ],
      [
        "Ġ",
        "ent"
      ],
      [
        "Ġwhe",
        "n"
      ],
      [
        "cenari",
        "o"
      ],
      [
        "pp",
        "ort"
      ],
      [
        "v",
        "iew"
      ],
      [
        "Ġm",
        "ay"
      ],
      [
        "ĠT",
        "his"
      ],
      [
        "ar",
        "amet"
      ],
      [
        "or",
        "d"
      ],
      [
        "Ġs",
        "o"
      ],
      [
        "Ġo",
        "ther"
      ],
      [
        "y",
        "p"
      ],
      [
        "Ġn",
        "ame"
      ],
      [
        "Ġal",
        "so"
      ],
      [
        "Ġp",
        "avement"
      ],
      [
        "Ġt",
        "ur"
      ],
      [
        "S",
        "t"
      ],
      [
        "Ġadd",
        "ress"
      ],
      [
        "ib",
        "le"
      ],
      [
        "ï¬",
        "ģ"
      ],
      [
        "Ġdet",
        "ails"
      ],
      [
        "Ġl",
        "ay"
      ],
      [
        "at",
        "ure"
      ],
      [
        "el",
        "s"
      ],
      [
        "ear",
        "s"
      ],
      [
        "Ġ",
        "ver"
      ],
      [
        "i",
        "ent"
      ],
      [
        "Ġ",
        "6"
      ],
      [
        "a",
        "c"
      ],
      [
        "iz",
        "ed"
      ],
      [
        "T",
        "able"
      ],
      [
        "or",
        "s"
      ],
      [
        "2",
        "7"
      ],
      [
        "1",
        "7"
      ],
      [
        "F",
        "or"
      ],
      [
        "Ġa",
        "d"
      ],
      [
        "Ġs",
        "ystem"
      ],
      [
        "s",
        "p"
      ],
      [
        "a",
        "ce"
      ],
      [
        "a",
        "k"
      ],
      [
        "mpl",
        "ate"
      ],
      [
        "ĠR",
        "e"
      ],
      [
        "d",
        "ition"
      ],
      [
        "N",
        "ot"
      ],
      [
        "Ġin",
        "cl"
      ],
      [
        "Ġ1",
        "7"
      ],
      [
        "p",
        "ro"
      ],
      [
        "r",
        "on"
      ],
      [
        "1",
        "4"
      ],
      [
        "re",
        "d"
      ],
      [
        "ug",
        "h"
      ],
      [
        "al",
        "y"
      ],
      [
        "ĠA",
        "pp"
      ],
      [
        "Ġin",
        "cre"
      ],
      [
        "Ġpro",
        "cess"
      ],
      [
        "U",
        "sing"
      ],
      [
        "Ġi",
        "mp"
      ],
      [
        "2",
        "4"
      ],
      [
        "Ġt",
        "ime"
      ],
      [
        "Ġres",
        "ource"
      ],
      [
        "1",
        "3"
      ],
      [
        "Ġmodel",
        "s"
      ],
      [
        "Ġtra",
        "in"
      ],
      [
        "r",
        "it"
      ],
      [
        "ent",
        "s"
      ],
      [
        "Ġthe",
        "se"
      ],
      [
        "T",
        "P"
      ],
      [
        "Ġc",
        "lick"
      ],
      [
        "cri",
        "ption"
      ],
      [
        "e",
        "en"
      ],
      [
        "a",
        "ke"
      ],
      [
        "ech",
        "n"
      ],
      [
        "Ġth",
        "an"
      ],
      [
        "E",
        "N"
      ],
      [
        "Ġn",
        "o"
      ],
      [
        "ilo",
        "t"
      ],
      [
        "a",
        "mple"
      ],
      [
        "Ġde",
        "f"
      ],
      [
        "Ġsu",
        "ch"
      ],
      [
        "Ġmet",
        "hod"
      ],
      [
        "etw",
        "ork"
      ],
      [
        "ist",
        "ing"
      ],
      [
        "Ġp",
        "ower"
      ],
      [
        "ð",
        "Ŀ"
      ],
      [
        "Ġvalu",
        "e"
      ],
      [
        "ĠI",
        "P"
      ],
      [
        "D",
        "e"
      ],
      [
        "Ġ",
        "if"
      ],
      [
        "Ġp",
        "art"
      ],
      [
        "Ġst",
        "ruct"
      ],
      [
        "w",
        "ay"
      ],
      [
        "ater",
        "ial"
      ],
      [
        "Ġair",
        "plane"
      ],
      [
        "Ġex",
        "p"
      ],
      [
        "ro",
        "ugh"
      ],
      [
        "fa",
        "ult"
      ],
      [
        "Ġe",
        "ach"
      ],
      [
        "ff",
        "ect"
      ],
      [
        "Ġt",
        "ype"
      ],
      [
        "ĠĠ",
        "Ġ"
      ],
      [
        "1",
        "8"
      ],
      [
        "o",
        "ck"
      ],
      [
        "g",
        "y"
      ],
      [
        "ĠC",
        "ore"
      ],
      [
        "ri",
        "b"
      ],
      [
        "Ġfollow",
        "ing"
      ],
      [
        "Ġper",
        "form"
      ],
      [
        "as",
        "es"
      ],
      [
        "2",
        "3"
      ],
      [
        "L",
        "AN"
      ],
      [
        "c",
        "al"
      ],
      [
        "Ġ",
        "\""
      ],
      [
        "le",
        "t"
      ],
      [
        "w",
        "o"
      ],
      [
        "in",
        "al"
      ],
      [
        "âĢ",
        "ĵ"
      ],
      [
        "Ġh",
        "igh"
      ],
      [
        "et",
        "ric"
      ],
      [
        "and",
        "ing"
      ],
      [
        "oun",
        "d"
      ],
      [
        "ou",
        "nt"
      ],
      [
        "E",
        "n"
      ],
      [
        "__",
        "__"
      ],
      [
        "etw",
        "een"
      ],
      [
        "Ġ",
        "low"
      ],
      [
        "Ġd",
        "i"
      ],
      [
        "Ġn",
        "ew"
      ],
      [
        "ag",
        "es"
      ],
      [
        "re",
        "e"
      ],
      [
        "or",
        "y"
      ],
      [
        "a",
        "us"
      ],
      [
        "Ġ",
        "qu"
      ],
      [
        "Ġd",
        "if"
      ],
      [
        "ur",
        "al"
      ],
      [
        "ĠI",
        "D"
      ],
      [
        "vail",
        "able"
      ],
      [
        "Ġrequire",
        "d"
      ],
      [
        "Ġ",
        "K"
      ],
      [
        "iz",
        "e"
      ],
      [
        "ĠCh",
        "oose"
      ],
      [
        "ol",
        "d"
      ],
      [
        "pt",
        "im"
      ],
      [
        "................",
        "................"
      ],
      [
        "2",
        "1"
      ],
      [
        "Ġst",
        "at"
      ],
      [
        "ress",
        "ure"
      ],
      [
        "Ġit",
        "s"
      ],
      [
        "Ġsu",
        "pport"
      ],
      [
        "¯",
        "ï£"
      ],
      [
        "º",
        "ï£"
      ],
      [
        "re",
        "qu"
      ],
      [
        "Ġprov",
        "id"
      ],
      [
        "ce",
        "pt"
      ],
      [
        "iz",
        "ation"
      ],
      [
        "ced",
        "ure"
      ],
      [
        "o",
        "mp"
      ],
      [
        "en",
        "cy"
      ],
      [
        "om",
        "e"
      ],
      [
        "l",
        "es"
      ],
      [
        "Ġs",
        "cenario"
      ],
      [
        "Ġm",
        "e"
      ],
      [
        "2",
        "2"
      ],
      [
        "A",
        "T"
      ],
      [
        "Ġlo",
        "ad"
      ],
      [
        "Ġl",
        "if"
      ],
      [
        "Ġf",
        "un"
      ],
      [
        "Ġin",
        "d"
      ],
      [
        "Ġin",
        "put"
      ],
      [
        "u",
        "e"
      ],
      [
        "â",
        "Ĩ"
      ],
      [
        "ation",
        "al"
      ],
      [
        "ut",
        "e"
      ],
      [
        "if",
        "y"
      ],
      [
        "Ġb",
        "ut"
      ],
      [
        "v",
        "ed"
      ],
      [
        "ter",
        "n"
      ],
      [
        "Î",
        "¸"
      ],
      [
        "che",
        "s"
      ],
      [
        "Ġo",
        "per"
      ],
      [
        "ĠW",
        "e"
      ],
      [
        "A",
        "I"
      ],
      [
        "ynam",
        "ic"
      ],
      [
        "3",
        "0"
      ],
      [
        "Ġp",
        "ilot"
      ],
      [
        "et",
        "s"
      ],
      [
        "in",
        "es"
      ],
      [
        "Ġp",
        "aramet"
      ],
      [
        "ï¬",
        "Ģ"
      ],
      [
        "b",
        "le"
      ],
      [
        "m",
        "an"
      ],
      [
        "per",
        "i"
      ],
      [
        "Ġa",
        "ut"
      ],
      [
        "ĠT",
        "able"
      ],
      [
        "Ġro",
        "t"
      ],
      [
        "ĠT",
        "o"
      ],
      [
        "h",
        "or"
      ],
      [
        "l",
        "ay"
      ],
      [
        "m",
        "s"
      ],
      [
        "Ġb",
        "etween"
      ],
      [
        "Ġ1",
        "9"
      ],
      [
        "R",
        "F"
      ],
      [
        "Ġthe",
        "n"
      ],
      [
        "he",
        "ck"
      ],
      [
        "ro",
        "ss"
      ],
      [
        "Ġsh",
        "ould"
      ],
      [
        "C",
        "P"
      ],
      [
        "î",
        "ģ"
      ],
      [
        "Ġf",
        "ield"
      ],
      [
        "Ġcon",
        "ne"
      ],
      [
        "Ġth",
        "rough"
      ],
      [
        "Ġt",
        "wo"
      ],
      [
        "a",
        "i"
      ],
      [
        "p",
        "ort"
      ],
      [
        "Ġpro",
        "mpt"
      ],
      [
        "und",
        "er"
      ],
      [
        "s",
        "h"
      ],
      [
        "ur",
        "face"
      ],
      [
        "re",
        "ate"
      ],
      [
        "ad",
        "e"
      ],
      [
        "om",
        "m"
      ],
      [
        "Ġacc",
        "ess"
      ],
      [
        "Ġ17",
        "83"
      ],
      [
        "ion",
        "s"
      ],
      [
        "Ġm",
        "aterial"
      ],
      [
        "Ġv",
        "ari"
      ],
      [
        "Ġ",
        "k"
      ],
      [
        "Ġd",
        "at"
      ],
      [
        "Ġspec",
        "ific"
      ],
      [
        "Ġass",
        "ign"
      ],
      [
        "fere",
        "nce"
      ],
      [
        "ĠA",
        "dd"
      ],
      [
        "Ġd",
        "ra"
      ],
      [
        "Ġbe",
        "en"
      ],
      [
        "ĠS",
        "witch"
      ],
      [
        "im",
        "it"
      ],
      [
        "Ġ1",
        "0"
      ],
      [
        "f",
        "er"
      ],
      [
        "o",
        "lo"
      ],
      [
        "Ġm",
        "ain"
      ],
      [
        "Ġd",
        "o"
      ],
      [
        "st",
        "ration"
      ],
      [
        "res",
        "ent"
      ],
      [
        "Ġcomp",
        "ut"
      ],
      [
        "m",
        "o"
      ],
      [
        "Ġre",
        "du"
      ],
      [
        "Ġvalu",
        "es"
      ],
      [
        "¯ï£",
        "¯ï£"
      ],
      [
        "ºï£",
        "ºï£"
      ],
      [
        "5",
        "3"
      ],
      [
        "Ġs",
        "ec"
      ],
      [
        "if",
        "act"
      ],
      [
        "Ġte",
        "mplate"
      ],
      [
        "Ġ",
        "ra"
      ],
      [
        "Ġ",
        "+"
      ],
      [
        "in",
        "ed"
      ],
      [
        "du",
        "ct"
      ],
      [
        "Ġan",
        "y"
      ],
      [
        "ĠA",
        "d"
      ],
      [
        "ĠI",
        "t"
      ],
      [
        "ĠAut",
        "om"
      ],
      [
        "ĠI",
        "f"
      ],
      [
        "Ġc",
        "or"
      ],
      [
        "i",
        "ed"
      ],
      [
        "p",
        "en"
      ],
      [
        "Ġcon",
        "st"
      ],
      [
        "ver",
        "s"
      ],
      [
        "vic",
        "es"
      ],
      [
        "kn",
        "ess"
      ],
      [
        "c",
        "ul"
      ],
      [
        "im",
        "um"
      ],
      [
        "Ġapp",
        "ears"
      ],
      [
        "ĠV",
        "LAN"
      ],
      [
        "Ġ",
        "id"
      ],
      [
        "Ġf",
        "light"
      ],
      [
        "v",
        "i"
      ],
      [
        "Ġin",
        "to"
      ],
      [
        "ap",
        "ter"
      ],
      [
        "it",
        "ude"
      ],
      [
        "Ġn",
        "etwork"
      ],
      [
        "Ġmod",
        "e"
      ],
      [
        "che",
        "stration"
      ],
      [
        "Ġ",
        "et"
      ],
      [
        "R",
        "P"
      ],
      [
        "Ġmet",
        "ric"
      ],
      [
        "b",
        "ed"
      ],
      [
        "Ġ",
        "8"
      ],
      [
        "Ġcon",
        "dition"
      ],
      [
        "Ġ",
        "7"
      ],
      [
        "n",
        "et"
      ],
      [
        "Ġt",
        "est"
      ],
      [
        "Ġp",
        "ressure"
      ],
      [
        "ĠD",
        "esign"
      ],
      [
        "c",
        "i"
      ],
      [
        "ub",
        "lication"
      ],
      [
        "Ġsh",
        "ow"
      ],
      [
        "ot",
        "h"
      ],
      [
        "Ġ",
        "ge"
      ],
      [
        "Ġs",
        "peed"
      ],
      [
        "Ġv",
        "iew"
      ],
      [
        "oc",
        "i"
      ],
      [
        "f",
        "ore"
      ],
      [
        "Ġa",
        "vailable"
      ],
      [
        "t",
        "ime"
      ],
      [
        "Ġ",
        "im"
      ],
      [
        "Ġ",
        "under"
      ],
      [
        "al",
        "ly"
      ],
      [
        "Ġan",
        "aly"
      ],
      [
        "Ġth",
        "ic"
      ],
      [
        "Ġ",
        "9"
      ],
      [
        "R",
        "e"
      ],
      [
        "c",
        "ent"
      ],
      [
        "w",
        "ell"
      ],
      [
        "cenari",
        "os"
      ],
      [
        "ex",
        "t"
      ],
      [
        "v",
        "ing"
      ],
      [
        "ul",
        "l"
      ],
      [
        "pl",
        "ay"
      ],
      [
        "Ġ",
        "You"
      ],
      [
        "er",
        "ing"
      ],
      [
        "Ġs",
        "ign"
      ],
      [
        "Ġs",
        "ecret"
      ],
      [
        "Ġtur",
        "b"
      ],
      [
        "Ġf",
        "e"
      ],
      [
        "Ġe",
        "qu"
      ],
      [
        "abl",
        "ed"
      ],
      [
        "Ġt",
        "yp"
      ],
      [
        "Ġm",
        "ust"
      ],
      [
        "iz",
        "ations"
      ],
      [
        "Ġs",
        "im"
      ],
      [
        "and",
        "ard"
      ],
      [
        "Ġexec",
        "ution"
      ],
      [
        "n",
        "ect"
      ],
      [
        "Ġob",
        "ject"
      ],
      [
        "it",
        "ies"
      ],
      [
        "ical",
        "ly"
      ],
      [
        "Ġs",
        "ame"
      ],
      [
        "Ġcom",
        "m"
      ],
      [
        "ar",
        "g"
      ],
      [
        "as",
        "k"
      ],
      [
        "U",
        "M"
      ],
      [
        "ĠAutom",
        "ation"
      ],
      [
        "Ġa",
        "ct"
      ],
      [
        "4",
        "0"
      ],
      [
        "âĢ",
        "Ķ"
      ],
      [
        "Ġw",
        "h"
      ],
      [
        "Ġre",
        "g"
      ],
      [
        ".",
        ";"
      ],
      [
        "Ġ",
        "Â"
      ],
      [
        "Ġd",
        "ire"
      ],
      [
        "ĠG",
        "u"
      ],
      [
        "cc",
        "ess"
      ],
      [
        "min",
        "ist"
      ],
      [
        "f",
        "ter"
      ],
      [
        "Ġb",
        "l"
      ],
      [
        "Ġst",
        "ep"
      ],
      [
        "iv",
        "es"
      ],
      [
        "abl",
        "es"
      ],
      [
        "w",
        "ard"
      ],
      [
        "c",
        "ol"
      ],
      [
        "Ġthe",
        "re"
      ],
      [
        "Ġc",
        "lass"
      ],
      [
        "ĠM",
        "od"
      ],
      [
        "c",
        "le"
      ],
      [
        "er",
        "od"
      ],
      [
        "a",
        "pp"
      ],
      [
        "o",
        "x"
      ],
      [
        "le",
        "x"
      ],
      [
        "w",
        "are"
      ],
      [
        "ro",
        "up"
      ],
      [
        "t",
        "ifact"
      ],
      [
        "ĠA",
        "ir"
      ],
      [
        "ffic",
        "ient"
      ],
      [
        "Ġm",
        "in"
      ],
      [
        "Ġ20",
        "25"
      ],
      [
        "Ġne",
        "ed"
      ],
      [
        "Ġappro",
        "ach"
      ],
      [
        "Ġlay",
        "er"
      ],
      [
        "L",
        "D"
      ],
      [
        "Ġ",
        "Y"
      ],
      [
        "Ġ",
        "Ë"
      ],
      [
        "Ġc",
        "lo"
      ],
      [
        "ro",
        "und"
      ],
      [
        "valu",
        "ation"
      ],
      [
        "ĠS",
        "et"
      ],
      [
        "fere",
        "nt"
      ],
      [
        "ðĿ",
        "ĳ"
      ],
      [
        "Ġ",
        "est"
      ],
      [
        "Ġc",
        "heck"
      ],
      [
        "vel",
        "op"
      ],
      [
        "Ġcre",
        "ate"
      ],
      [
        "Ġc",
        "y"
      ],
      [
        "ar",
        "act"
      ],
      [
        "Ġ",
        "ke"
      ],
      [
        "al",
        "t"
      ],
      [
        "Ġd",
        "uring"
      ],
      [
        "Ġl",
        "imit"
      ],
      [
        "Ġst",
        "all"
      ],
      [
        "Ġcontain",
        "s"
      ],
      [
        "il",
        "ter"
      ],
      [
        "ock",
        "well"
      ],
      [
        "er",
        "iv"
      ],
      [
        "gra",
        "de"
      ],
      [
        "Not",
        "e"
      ],
      [
        "Ġ",
        "ed"
      ],
      [
        "es",
        "cription"
      ],
      [
        "ct",
        "o"
      ],
      [
        "ĠF",
        "igure"
      ],
      [
        "en",
        "ai"
      ],
      [
        "Ġb",
        "ase"
      ],
      [
        "ual",
        "ly"
      ],
      [
        "Ġselect",
        "ed"
      ],
      [
        "Ġfun",
        "ction"
      ],
      [
        "f",
        "o"
      ],
      [
        "Ġl",
        "anding"
      ],
      [
        "olo",
        "gy"
      ],
      [
        "Ġparamet",
        "ers"
      ],
      [
        "0",
        "12"
      ],
      [
        "u",
        "ch"
      ],
      [
        "Ġcon",
        "figure"
      ],
      [
        "ĠR",
        "es"
      ],
      [
        "ĠU",
        "ser"
      ],
      [
        "ĠĠĠĠĠĠĠĠ",
        "Ġ"
      ],
      [
        "Î",
        "´"
      ],
      [
        "ra",
        "m"
      ],
      [
        "a",
        "mp"
      ],
      [
        "ar",
        "s"
      ],
      [
        "cto",
        "ber"
      ],
      [
        "S",
        "e"
      ],
      [
        "s",
        "peed"
      ],
      [
        "Ġ",
        "ve"
      ],
      [
        "Ġfor",
        "m"
      ],
      [
        "Ġconne",
        "ction"
      ],
      [
        "I",
        "E"
      ],
      [
        "ar",
        "k"
      ],
      [
        "Ġre",
        "c"
      ],
      [
        "ĠM",
        "an"
      ],
      [
        "ĠO",
        "ctober"
      ],
      [
        "t",
        "ra"
      ],
      [
        "re",
        "ad"
      ],
      [
        "Ġm",
        "ult"
      ],
      [
        "O",
        "N"
      ],
      [
        "Ġa",
        "g"
      ],
      [
        "ĠA",
        "n"
      ],
      [
        "lo",
        "ad"
      ],
      [
        "Ġresult",
        "s"
      ],
      [
        "aus",
        "e"
      ],
      [
        "o",
        "b"
      ],
      [
        "R",
        "ockwell"
      ],
      [
        "e",
        "ver"
      ],
      [
        "Ġc",
        "ase"
      ],
      [
        "Ġwhe",
        "re"
      ],
      [
        "f",
        "low"
      ],
      [
        "P",
        "re"
      ],
      [
        "is",
        "e"
      ],
      [
        "ech",
        "an"
      ],
      [
        "v",
        "ent"
      ],
      [
        "ĠP",
        "ublication"
      ],
      [
        "ar",
        "ch"
      ],
      [
        "Ġde",
        "fault"
      ],
      [
        "Ch",
        "apter"
      ],
      [
        "Ġ",
        "âĪĴ"
      ],
      [
        "op",
        "ter"
      ],
      [
        "Ġo",
        "ptim"
      ],
      [
        "Ġre",
        "l"
      ],
      [
        "if",
        "ied"
      ],
      [
        "ud",
        "ing"
      ],
      [
        "ption",
        "al"
      ],
      [
        "Ġthic",
        "kness"
      ],
      [
        "p",
        "s"
      ],
      [
        "al",
        "ity"
      ],
      [
        "Ġwhe",
        "el"
      ],
      [
        "Ġdi",
        "ï¬Ģ"
      ],
      [
        "S",
        "T"
      ],
      [
        "Ġp",
        "o"
      ],
      [
        "Ġd",
        "own"
      ],
      [
        "Ġv",
        "al"
      ],
      [
        "Ġal",
        "low"
      ],
      [
        "cre",
        "en"
      ],
      [
        "3",
        "5"
      ],
      [
        "Ġl",
        "ong"
      ],
      [
        "iv",
        "ely"
      ],
      [
        "2",
        "00"
      ],
      [
        "m",
        "m"
      ],
      [
        "ul",
        "ar"
      ],
      [
        "ere",
        "d"
      ],
      [
        "Ġtra",
        "ffic"
      ],
      [
        "Ġt",
        "ab"
      ],
      [
        "at",
        "h"
      ],
      [
        "Ġe",
        "ffect"
      ],
      [
        "Ġch",
        "art"
      ],
      [
        "a",
        "ir"
      ],
      [
        "en",
        "g"
      ],
      [
        "Ġperform",
        "ance"
      ],
      [
        "o",
        "ver"
      ],
      [
        "Ġs",
        "yn"
      ],
      [
        "ol",
        "es"
      ],
      [
        "Ġwe",
        "ight"
      ],
      [
        "Ġex",
        "isting"
      ],
      [
        "t",
        "ed"
      ],
      [
        "Ġdat",
        "as"
      ],
      [
        "n",
        "al"
      ],
      [
        "Ġf",
        "l"
      ],
      [
        "Ġch",
        "ang"
      ],
      [
        "D",
        "escription"
      ],
      [
        "á",
        "Ī"
      ],
      [
        "Ġw",
        "ere"
      ],
      [
        "ĠF",
        "AA"
      ],
      [
        "oci",
        "ated"
      ],
      [
        "Ġres",
        "p"
      ],
      [
        "ur",
        "re"
      ],
      [
        "ph",
        "alt"
      ],
      [
        "ow",
        "ever"
      ],
      [
        "Ġdra",
        "g"
      ],
      [
        "d",
        "er"
      ],
      [
        "m",
        "od"
      ],
      [
        "p",
        "os"
      ],
      [
        "t",
        "en"
      ],
      [
        "RF",
        "IE"
      ],
      [
        "r",
        "ust"
      ],
      [
        "Ġd",
        "ist"
      ],
      [
        "t",
        "ings"
      ],
      [
        "Ġthe",
        "ir"
      ],
      [
        "it",
        "es"
      ],
      [
        "Ġst",
        "ore"
      ],
      [
        "Ġdif",
        "ferent"
      ],
      [
        "RFIE",
        "LD"
      ],
      [
        "A",
        "n"
      ],
      [
        "i",
        "e"
      ],
      [
        "Ġs",
        "ol"
      ],
      [
        "ion",
        "al"
      ],
      [
        "ĊĠ",
        "ĊĠ"
      ],
      [
        "Pro",
        "cedure"
      ],
      [
        "2",
        "8"
      ],
      [
        "Ġ",
        "&"
      ],
      [
        "ave",
        "ments"
      ],
      [
        "Ġstruct",
        "ure"
      ],
      [
        "l",
        "ind"
      ],
      [
        "v",
        "en"
      ],
      [
        "Ġde",
        "vice"
      ],
      [
        "2",
        "6"
      ],
      [
        "I",
        "P"
      ],
      [
        "x",
        "t"
      ],
      [
        "Ġpro",
        "gra"
      ],
      [
        "Ġdet",
        "er"
      ],
      [
        "on",
        "e"
      ],
      [
        "co",
        "mp"
      ],
      [
        "o",
        "ve"
      ],
      [
        "ar",
        "ge"
      ],
      [
        "I",
        "f"
      ],
      [
        "r",
        "at"
      ],
      [
        "Ġs",
        "urface"
      ],
      [
        "Ġex",
        "ample"
      ],
      [
        "age",
        "ment"
      ],
      [
        "Ġcom",
        "b"
      ],
      [
        "Ġinter",
        "face"
      ],
      [
        "Ġstat",
        "us"
      ],
      [
        "t",
        "ing"
      ],
      [
        "hic",
        "le"
      ],
      [
        "Ġassign",
        "ed"
      ],
      [
        "ĠS",
        "er"
      ],
      [
        "Ġadd",
        "ition"
      ],
      [
        "on",
        "itor"
      ],
      [
        "ploy",
        "ments"
      ],
      [
        "i",
        "o"
      ],
      [
        "Ġb",
        "ec"
      ],
      [
        "g",
        "h"
      ],
      [
        "Ġp",
        "os"
      ],
      [
        "Ġ",
        "00"
      ],
      [
        "it",
        "e"
      ],
      [
        "Ġp",
        "age"
      ],
      [
        "Ġw",
        "ing"
      ],
      [
        "ra",
        "ph"
      ],
      [
        "Ġch",
        "ange"
      ],
      [
        "l",
        "ation"
      ],
      [
        "p",
        "end"
      ],
      [
        "Ġare",
        "a"
      ],
      [
        "Ġse",
        "ction"
      ],
      [
        "te",
        "xt"
      ],
      [
        "ĠGu",
        "ide"
      ],
      [
        "v",
        "al"
      ],
      [
        "Ġ1",
        "50"
      ],
      [
        "Ġch",
        "aract"
      ],
      [
        "per",
        "ations"
      ],
      [
        "Ġdis",
        "play"
      ],
      [
        "Ġid",
        "ent"
      ],
      [
        "8",
        "0"
      ],
      [
        "Î",
        "±"
      ],
      [
        "ĠC",
        "reate"
      ],
      [
        "Ġus",
        "er"
      ],
      [
        "ĠR",
        "oles"
      ],
      [
        "i",
        "qu"
      ],
      [
        "Ġan",
        "g"
      ],
      [
        "Ġcol",
        "lection"
      ],
      [
        "Ġb",
        "ased"
      ],
      [
        "Ġb",
        "oth"
      ],
      [
        "ent",
        "ial"
      ],
      [
        "Ġ",
        "er"
      ],
      [
        "ĠR",
        "un"
      ],
      [
        "ru",
        "ction"
      ],
      [
        "6",
        "0"
      ],
      [
        "a",
        "ft"
      ],
      [
        "Ġs",
        "creen"
      ],
      [
        "it",
        "ive"
      ],
      [
        "Ġab",
        "out"
      ],
      [
        "Ġtrain",
        "ing"
      ],
      [
        "or",
        "m"
      ],
      [
        "fa",
        "ct"
      ],
      [
        "Ġtyp",
        "es"
      ],
      [
        "7",
        "0"
      ],
      [
        "Ġcons",
        "id"
      ],
      [
        "urre",
        "nt"
      ],
      [
        "7",
        "5"
      ],
      [
        "A",
        "pp"
      ],
      [
        "o",
        "st"
      ],
      [
        "Ġcon",
        "nect"
      ],
      [
        "ĠAut",
        "hor"
      ],
      [
        "Ġexec",
        "ut"
      ],
      [
        "Ġmo",
        "st"
      ],
      [
        "requ",
        "is"
      ],
      [
        "t",
        "al"
      ],
      [
        "ou",
        "gh"
      ],
      [
        "li",
        "ed"
      ],
      [
        "requis",
        "ites"
      ],
      [
        "ip",
        "le"
      ],
      [
        "\"",
        ":"
      ],
      [
        "A",
        "S"
      ],
      [
        "M",
        "P"
      ],
      [
        "w",
        "ith"
      ],
      [
        "Pre",
        "requisites"
      ],
      [
        "Ġt",
        "im"
      ],
      [
        "lic",
        "ations"
      ],
      [
        "os",
        "itor"
      ],
      [
        "Ġar",
        "tifact"
      ],
      [
        "H",
        "CP"
      ],
      [
        "er",
        "ature"
      ],
      [
        "Ġro",
        "ll"
      ],
      [
        "ĠG",
        "ener"
      ],
      [
        "Ġincl",
        "ude"
      ],
      [
        "Ġind",
        "ic"
      ],
      [
        "E",
        "x"
      ],
      [
        "U",
        "I"
      ],
      [
        "s",
        "ed"
      ],
      [
        "Ġ",
        "î"
      ],
      [
        "is",
        "h"
      ],
      [
        "Ġp",
        "oint"
      ],
      [
        "ar",
        "m"
      ],
      [
        "Ġle",
        "vel"
      ],
      [
        "ific",
        "ation"
      ],
      [
        "Ġwork",
        "s"
      ],
      [
        "Ġcomp",
        "are"
      ],
      [
        "to",
        "col"
      ],
      [
        "echn",
        "ology"
      ],
      [
        "r",
        "im"
      ],
      [
        "ec",
        "ution"
      ],
      [
        "Ġent",
        "er"
      ],
      [
        "Ġen",
        "d"
      ],
      [
        "c",
        "ing"
      ],
      [
        "n",
        "ess"
      ],
      [
        "ĠC",
        "omp"
      ],
      [
        "Ġg",
        "o"
      ],
      [
        "d",
        "ate"
      ],
      [
        "on",
        "s"
      ],
      [
        "iv",
        "en"
      ],
      [
        "ĠU",
        "n"
      ],
      [
        "Ġout",
        "put"
      ],
      [
        "Ġst",
        "ate"
      ],
      [
        "cre",
        "te"
      ],
      [
        "ron",
        "t"
      ],
      [
        "t",
        "ion"
      ],
      [
        "u",
        "ra"
      ],
      [
        "Ġh",
        "ub"
      ],
      [
        "Ġde",
        "lete"
      ],
      [
        "Ġanaly",
        "sis"
      ],
      [
        "Ġc",
        "rit"
      ],
      [
        "ver",
        "y"
      ],
      [
        "ust",
        "om"
      ],
      [
        "cc",
        "ur"
      ],
      [
        "ĠCon",
        "figuration"
      ],
      [
        "Ġrot",
        "or"
      ],
      [
        "Ġke",
        "y"
      ],
      [
        "2",
        "9"
      ],
      [
        "a",
        "ces"
      ],
      [
        "an",
        "n"
      ],
      [
        "erod",
        "ynamic"
      ],
      [
        "E",
        "S"
      ],
      [
        "b",
        "e"
      ],
      [
        "in",
        "ce"
      ],
      [
        "Ġc",
        "ap"
      ],
      [
        "Ġf",
        "ir"
      ],
      [
        "im",
        "ens"
      ],
      [
        "Ġro",
        "les"
      ],
      [
        "ang",
        "u"
      ],
      [
        "Ġinst",
        "ance"
      ],
      [
        "ĠWe",
        "b"
      ],
      [
        "re",
        "g"
      ],
      [
        "ĠA",
        "l"
      ],
      [
        "Ġsec",
        "ond"
      ],
      [
        "C",
        "ase"
      ],
      [
        "Ġp",
        "ri"
      ],
      [
        "Ġcre",
        "ated"
      ],
      [
        "he",
        "re"
      ],
      [
        "t",
        "t"
      ],
      [
        "v",
        "es"
      ],
      [
        "Ġ",
        "Z"
      ],
      [
        "it",
        "s"
      ],
      [
        "Ġd",
        "eriv"
      ],
      [
        "Ġrun",
        "time"
      ],
      [
        "Ġser",
        "ver"
      ],
      [
        "ĠSe",
        "e"
      ],
      [
        "Ġver",
        "sion"
      ],
      [
        "d",
        "own"
      ],
      [
        "u",
        "el"
      ],
      [
        "Ġc",
        "al"
      ],
      [
        "an",
        "s"
      ],
      [
        "ro",
        "p"
      ],
      [
        "il",
        "ity"
      ],
      [
        "Ġass",
        "ociated"
      ],
      [
        "Ġer",
        "r"
      ],
      [
        "ĠAuthor",
        "izations"
      ],
      [
        "Ġin",
        "t"
      ],
      [
        "Ġprov",
        "ide"
      ],
      [
        "t",
        "rol"
      ],
      [
        "it",
        "her"
      ],
      [
        "ĠG",
        "roup"
      ],
      [
        "Ġlo",
        "g"
      ],
      [
        "ib",
        "r"
      ],
      [
        "Ġmetric",
        "s"
      ],
      [
        "rat",
        "ix"
      ],
      [
        "ed",
        "itor"
      ],
      [
        "Ġst",
        "ud"
      ],
      [
        "Ġpro",
        "per"
      ],
      [
        "Ġsub",
        "grade"
      ],
      [
        "oc",
        "u"
      ],
      [
        "C",
        "l"
      ],
      [
        "a",
        "w"
      ],
      [
        "Ġp",
        "h"
      ],
      [
        "Ġp",
        "ass"
      ],
      [
        "figur",
        "ations"
      ],
      [
        "En",
        "ter"
      ],
      [
        "u",
        "fact"
      ],
      [
        "âĢ",
        "¦"
      ],
      [
        "Ġwith",
        "in"
      ],
      [
        "end",
        "ed"
      ],
      [
        "Ġser",
        "vice"
      ],
      [
        "Ġfield",
        "s"
      ],
      [
        "Ġc",
        "ent"
      ],
      [
        "Ġr",
        "at"
      ],
      [
        "Ġsh",
        "own"
      ],
      [
        "Ġinst",
        "ru"
      ],
      [
        "is",
        "ion"
      ],
      [
        "Ġst",
        "art"
      ],
      [
        "Ġst",
        "ability"
      ],
      [
        "Ġv",
        "ia"
      ],
      [
        "s",
        "ec"
      ],
      [
        "Ġf",
        "ull"
      ],
      [
        "che",
        "d"
      ],
      [
        "G",
        "ener"
      ],
      [
        "Ġde",
        "vices"
      ],
      [
        "Ġde",
        "velop"
      ],
      [
        "âĨ",
        "Ĵ"
      ],
      [
        "Ġa",
        "c"
      ],
      [
        "ig",
        "id"
      ],
      [
        "ur",
        "ity"
      ],
      [
        "Ġex",
        "t"
      ],
      [
        "Ġport",
        "s"
      ],
      [
        "Ġcondition",
        "s"
      ],
      [
        "Ġ",
        "x"
      ],
      [
        "ĠW",
        "ork"
      ],
      [
        "Ġcor",
        "re"
      ],
      [
        "ĠWeb",
        "UI"
      ],
      [
        "mp",
        "erature"
      ],
      [
        "E",
        "R"
      ],
      [
        "]",
        ","
      ],
      [
        "Ġp",
        "an"
      ],
      [
        "oc",
        "ity"
      ],
      [
        "ax",
        "imum"
      ],
      [
        "C",
        "L"
      ],
      [
        "it",
        "ial"
      ],
      [
        "Ġdes",
        "cri"
      ],
      [
        "Ġsystem",
        "s"
      ],
      [
        "etric",
        "s"
      ],
      [
        "1",
        "00"
      ],
      [
        "Ġ",
        "Q"
      ],
      [
        "Ġr",
        "ange"
      ],
      [
        "ï¬",
        "Ĥ"
      ],
      [
        "Ġlif",
        "t"
      ],
      [
        "'",
        "s"
      ],
      [
        "C",
        "lass"
      ],
      [
        "Ġf",
        "low"
      ],
      [
        "ĠA",
        "s"
      ],
      [
        "ilo",
        "g"
      ],
      [
        "Ġatt",
        "rib"
      ],
      [
        "minist",
        "ration"
      ],
      [
        "I",
        "N"
      ],
      [
        "Ġ",
        "kn"
      ],
      [
        "re",
        "n"
      ],
      [
        "ynam",
        "ics"
      ],
      [
        "Ġest",
        "im"
      ],
      [
        "Ġdatas",
        "et"
      ],
      [
        "ic",
        "on"
      ],
      [
        "Ġe",
        "ither"
      ],
      [
        "Ġcy",
        "lind"
      ],
      [
        "W",
        "hen"
      ],
      [
        "he",
        "d"
      ],
      [
        "ra",
        "in"
      ],
      [
        "ra",
        "ct"
      ],
      [
        "ly",
        "ing"
      ],
      [
        "ĠD",
        "HCP"
      ],
      [
        "ĠO",
        "n"
      ],
      [
        "o",
        "k"
      ],
      [
        "Ġs",
        "ome"
      ],
      [
        "ĠM",
        "L"
      ],
      [
        "Ġcomp",
        "ress"
      ],
      [
        "ĠV",
        "er"
      ],
      [
        "E",
        "T"
      ],
      [
        "b",
        "o"
      ],
      [
        "ar",
        "ning"
      ],
      [
        "Ġb",
        "el"
      ],
      [
        "Ġgro",
        "und"
      ],
      [
        "Ch",
        "oose"
      ],
      [
        "ĠEn",
        "ter"
      ],
      [
        "Ġlow",
        "er"
      ],
      [
        "Ġdo",
        "es"
      ],
      [
        "ĠFAA",
        "RFIELD"
      ],
      [
        "as",
        "ter"
      ],
      [
        "ess",
        "age"
      ],
      [
        "Ġ2",
        "00"
      ],
      [
        "v",
        "est"
      ],
      [
        "m",
        "all"
      ],
      [
        "Ġo",
        "ccur"
      ],
      [
        "Ġang",
        "le"
      ],
      [
        "n",
        "ot"
      ],
      [
        "u",
        "le"
      ],
      [
        "Î",
        "·"
      ],
      [
        "on",
        "ly"
      ],
      [
        "ï£",
        "´"
      ],
      [
        "Ġdis",
        "c"
      ],
      [
        "Ġstruct",
        "ural"
      ],
      [
        "Ġturb",
        "ine"
      ],
      [
        "A",
        "l"
      ],
      [
        "P",
        "I"
      ],
      [
        "an",
        "ced"
      ],
      [
        "ic",
        "e"
      ],
      [
        "Ġcal",
        "cul"
      ],
      [
        "6",
        "4"
      ],
      [
        "r",
        "id"
      ],
      [
        "us",
        "er"
      ],
      [
        "un",
        "ctions"
      ],
      [
        "Ġso",
        "il"
      ],
      [
        "Ġbl",
        "ade"
      ],
      [
        "Ġve",
        "hicle"
      ],
      [
        "Ġr",
        "ing"
      ],
      [
        "Ġcomp",
        "on"
      ],
      [
        "8",
        "00"
      ],
      [
        "ig",
        "ate"
      ],
      [
        "Ġwith",
        "out"
      ],
      [
        "Ġas",
        "phalt"
      ],
      [
        "view",
        "er"
      ],
      [
        "A",
        "D"
      ],
      [
        "Ġto",
        "ol"
      ],
      [
        "ra",
        "d"
      ],
      [
        "om",
        "ain"
      ],
      [
        "ĠĠĠĠĠĠĠĠ",
        "ĠĠĠĠĠĠĠĠ"
      ],
      [
        "îģ",
        "ľ"
      ],
      [
        "ci",
        "ence"
      ],
      [
        "as",
        "h"
      ],
      [
        "el",
        "ine"
      ],
      [
        "ur",
        "n"
      ],
      [
        "Ġl",
        "ine"
      ],
      [
        "Ġsim",
        "ul"
      ],
      [
        "Ġwh",
        "ile"
      ],
      [
        "Ġchang",
        "es"
      ],
      [
        "l",
        "ine"
      ],
      [
        "Ġ",
        "z"
      ],
      [
        "it",
        "ud"
      ],
      [
        "Ġf",
        "act"
      ],
      [
        "Ġd",
        "ec"
      ],
      [
        "ate",
        "g"
      ],
      [
        "Ġsub",
        "ject"
      ],
      [
        "Ġhe",
        "ad"
      ],
      [
        "Ġincre",
        "ase"
      ],
      [
        "B",
        "us"
      ],
      [
        "m",
        "b"
      ],
      [
        "o",
        "le"
      ],
      [
        "Ġc",
        "ar"
      ],
      [
        "Ġv",
        "is"
      ],
      [
        "plo",
        "re"
      ],
      [
        "Ġmethod",
        "s"
      ],
      [
        "Ġqu",
        "ality"
      ],
      [
        "Ġprovid",
        "es"
      ],
      [
        "in",
        "k"
      ],
      [
        "Ġapp",
        "lication"
      ],
      [
        "all",
        "ed"
      ],
      [
        "Ġaut",
        "om"
      ],
      [
        "b",
        "ack"
      ],
      [
        "p",
        "ar"
      ],
      [
        "Ġt",
        "er"
      ],
      [
        "Ġc",
        "ir"
      ],
      [
        "Ġm",
        "m"
      ],
      [
        "Ġm",
        "at"
      ],
      [
        "ran",
        "k"
      ],
      [
        "Con",
        "text"
      ],
      [
        "peri",
        "ment"
      ],
      [
        "R",
        "es"
      ],
      [
        "l",
        "at"
      ],
      [
        "m",
        "ain"
      ],
      [
        "Ġthe",
        "y"
      ],
      [
        "Ġs",
        "ens"
      ],
      [
        "an",
        "k"
      ],
      [
        "Ġe",
        "valuation"
      ],
      [
        "Ġl",
        "ess"
      ],
      [
        "Ġpro",
        "du"
      ],
      [
        "ag",
        "er"
      ],
      [
        "____",
        "____"
      ],
      [
        "ocu",
        "ment"
      ],
      [
        "a",
        "f"
      ],
      [
        "in",
        "ess"
      ],
      [
        "Ġre",
        "ar"
      ],
      [
        "ĠT",
        "rans"
      ],
      [
        "Ġst",
        "andard"
      ],
      [
        "20",
        "21"
      ],
      [
        "Ġen",
        "abled"
      ],
      [
        "ĠH",
        "owever"
      ],
      [
        "ĠCon",
        "figure"
      ],
      [
        "Ġa",
        "fter"
      ],
      [
        "Ġp",
        "ack"
      ],
      [
        "Ġw",
        "ind"
      ],
      [
        "el",
        "ocity"
      ],
      [
        "Ġg",
        "re"
      ],
      [
        "Ġr",
        "ate"
      ],
      [
        "ĠW",
        "hen"
      ],
      [
        "sp",
        "aces"
      ],
      [
        "Ġcharact",
        "er"
      ],
      [
        "ist",
        "ics"
      ],
      [
        "Ġro",
        "ut"
      ],
      [
        "Ġair",
        "speed"
      ],
      [
        "Ġcons",
        "ist"
      ],
      [
        "53",
        "20"
      ],
      [
        "Ġfe",
        "ature"
      ],
      [
        "0",
        "4"
      ],
      [
        "ar",
        "is"
      ],
      [
        "ord",
        "in"
      ],
      [
        "r",
        "ing"
      ],
      [
        "s",
        "cenarios"
      ],
      [
        "Ġw",
        "ell"
      ],
      [
        "id",
        "es"
      ],
      [
        "ĠP",
        "ort"
      ],
      [
        "âĢĿ",
        ","
      ],
      [
        "0",
        "3"
      ],
      [
        "a",
        "mpl"
      ],
      [
        "ec",
        "ess"
      ],
      [
        "ĠO",
        "ptional"
      ],
      [
        "res",
        "p"
      ],
      [
        "at",
        "ives"
      ],
      [
        "our",
        "nal"
      ],
      [
        "Ġshow",
        "s"
      ],
      [
        "v",
        "ol"
      ],
      [
        "at",
        "ely"
      ],
      [
        "il",
        "es"
      ],
      [
        "Ġor",
        "chestration"
      ],
      [
        "Ġdire",
        "ct"
      ],
      [
        "h",
        "a"
      ],
      [
        "m",
        "it"
      ],
      [
        "Ġs",
        "ide"
      ],
      [
        "Ġre",
        "t"
      ],
      [
        "Ġre",
        "mo"
      ],
      [
        "Ġcon",
        "cept"
      ],
      [
        "Ġrep",
        "ositor"
      ],
      [
        "4",
        "5"
      ],
      [
        "U",
        "S"
      ],
      [
        "l",
        "ess"
      ],
      [
        "y",
        "s"
      ],
      [
        "Ġf",
        "ront"
      ],
      [
        "Ġp",
        "resent"
      ],
      [
        "ot",
        "her"
      ],
      [
        "Ġpro",
        "p"
      ],
      [
        "g",
        "ener"
      ],
      [
        "Ġc",
        "l"
      ],
      [
        "Ġset",
        "tings"
      ],
      [
        "Ġlay",
        "ers"
      ],
      [
        "Ġaddition",
        "al"
      ],
      [
        ",",
        "âĢĿ"
      ],
      [
        "4",
        "3"
      ],
      [
        "c",
        "ation"
      ],
      [
        "e",
        "fficient"
      ],
      [
        "f",
        "ul"
      ],
      [
        "g",
        "ines"
      ],
      [
        "Ġp",
        "avements"
      ],
      [
        "ĠA",
        "PI"
      ],
      [
        "ĠN",
        "o"
      ],
      [
        "ce",
        "ed"
      ],
      [
        "Ġl",
        "angu"
      ],
      [
        "um",
        "m"
      ],
      [
        "Ġfir",
        "st"
      ],
      [
        "g",
        "enai"
      ],
      [
        "Ġ",
        "X"
      ],
      [
        "ro",
        "st"
      ],
      [
        "Ġp",
        "ub"
      ],
      [
        "ic",
        "ore"
      ],
      [
        "Ġch",
        "o"
      ],
      [
        "Ġen",
        "able"
      ],
      [
        "Ġlo",
        "ss"
      ],
      [
        "Ġgener",
        "ative"
      ],
      [
        "b",
        "y"
      ],
      [
        "s",
        "u"
      ],
      [
        "et",
        "hod"
      ],
      [
        "od",
        "y"
      ],
      [
        "Ġab",
        "ove"
      ],
      [
        "-",
        "-"
      ],
      [
        "c",
        "om"
      ],
      [
        "t",
        "s"
      ],
      [
        "Ġc",
        "urrent"
      ],
      [
        "an",
        "es"
      ],
      [
        "ĠS",
        "ecret"
      ],
      [
        "Ġh",
        "ow"
      ],
      [
        "Ġde",
        "pend"
      ],
      [
        "igh",
        "ter"
      ],
      [
        "âĪ",
        "Ĥ"
      ],
      [
        "ĠSe",
        "lect"
      ],
      [
        "lex",
        "ible"
      ],
      [
        "O",
        "n"
      ],
      [
        "i",
        "um"
      ],
      [
        "Ġs",
        "mall"
      ],
      [
        "Ġc",
        "ode"
      ],
      [
        "Ġl",
        "arge"
      ],
      [
        "the",
        "sis"
      ],
      [
        "ft",
        "ware"
      ],
      [
        "Ġgener",
        "ated"
      ],
      [
        "S",
        "D"
      ],
      [
        "b",
        "ased"
      ],
      [
        "Ġcomp",
        "lete"
      ],
      [
        "Ġdes",
        "cription"
      ],
      [
        "Ġtur",
        "n"
      ],
      [
        "Ġm",
        "aximum"
      ],
      [
        "let",
        "ed"
      ],
      [
        "itud",
        "inal"
      ],
      [
        "j",
        "ust"
      ],
      [
        "p",
        "art"
      ],
      [
        "at",
        "ter"
      ],
      [
        "Ġc",
        "at"
      ],
      [
        "Ġe",
        "le"
      ],
      [
        "Ġbe",
        "fore"
      ],
      [
        "ĠSt",
        "at"
      ],
      [
        "Ġgener",
        "al"
      ],
      [
        "C",
        "omp"
      ],
      [
        "i",
        "ï¬ģ"
      ],
      [
        "Ġmod",
        "ul"
      ],
      [
        "Ġte",
        "mperature"
      ],
      [
        "Ġj",
        "oint"
      ],
      [
        "s",
        "et"
      ],
      [
        "y",
        "cle"
      ],
      [
        "â",
        "ī"
      ],
      [
        "Ġb",
        "as"
      ],
      [
        "fa",
        "ces"
      ],
      [
        "Ġwork",
        "flow"
      ],
      [
        "vi",
        "ous"
      ],
      [
        "F",
        "ield"
      ],
      [
        "t",
        "ic"
      ],
      [
        "Ġc",
        "ross"
      ],
      [
        "Ġm",
        "ake"
      ],
      [
        "as",
        "ure"
      ],
      [
        "Ġmult",
        "iple"
      ],
      [
        "0",
        "5"
      ],
      [
        "3",
        "8"
      ],
      [
        "e",
        "y"
      ],
      [
        "Č",
        "Č"
      ],
      [
        "ĠS",
        "p"
      ],
      [
        "ĠM",
        "ars"
      ],
      [
        "Ġv",
        "elocity"
      ],
      [
        "Ġadd",
        "ed"
      ],
      [
        "Ġmain",
        "tain"
      ],
      [
        "aris",
        "on"
      ],
      [
        "r",
        "ate"
      ],
      [
        "t",
        "on"
      ],
      [
        "Ġto",
        "tal"
      ],
      [
        "ent",
        "ion"
      ],
      [
        "Ġl",
        "ab"
      ],
      [
        "ĠO",
        "perations"
      ],
      [
        "ult",
        "s"
      ],
      [
        "ane",
        "u"
      ],
      [
        "Con",
        "figure"
      ],
      [
        "Ġgroup",
        "s"
      ],
      [
        "Ġover",
        "lay"
      ],
      [
        "Ġimp",
        "ro"
      ],
      [
        "ĠË",
        "Ĩ"
      ],
      [
        "ĠSet",
        "up"
      ],
      [
        "fo",
        "il"
      ],
      [
        "0",
        "6"
      ],
      [
        "A",
        "R"
      ],
      [
        "a",
        "pe"
      ],
      [
        "Ġ",
        "<"
      ],
      [
        "lo",
        "ck"
      ],
      [
        "Ġn",
        "on"
      ],
      [
        "Ġse",
        "arch"
      ],
      [
        "um",
        "ber"
      ],
      [
        "Ġen",
        "gines"
      ],
      [
        "ĠDe",
        "vice"
      ],
      [
        "b",
        "ers"
      ],
      [
        "is",
        "sion"
      ],
      [
        "Ġm",
        "ix"
      ],
      [
        "ĠC",
        "ase"
      ],
      [
        "Ġst",
        "e"
      ],
      [
        "Ġprovid",
        "ed"
      ],
      [
        "Ġpos",
        "ition"
      ],
      [
        "Ġexecut",
        "able"
      ],
      [
        "Ġa",
        "m"
      ],
      [
        "Ġth",
        "rust"
      ],
      [
        "Ġg",
        "iven"
      ],
      [
        "om",
        "et"
      ],
      [
        "Ġpl",
        "ace"
      ],
      [
        "ĠË",
        "Ļ"
      ],
      [
        "Ġd",
        "ue"
      ],
      [
        "Ġh",
        "ig"
      ],
      [
        "abil",
        "ized"
      ],
      [
        "og",
        "raph"
      ],
      [
        "0",
        "7"
      ],
      [
        "I",
        "ON"
      ],
      [
        "S",
        "S"
      ],
      [
        "T",
        "ech"
      ],
      [
        "Ġf",
        "uel"
      ],
      [
        "ĠS",
        "h"
      ],
      [
        "Ġen",
        "c"
      ],
      [
        "Ġrequire",
        "ments"
      ],
      [
        "ĠAd",
        "ministration"
      ],
      [
        "o",
        "id"
      ],
      [
        "Ġa",
        "x"
      ],
      [
        "Ġc",
        "rank"
      ],
      [
        "ing",
        "le"
      ],
      [
        "ĠA",
        "r"
      ],
      [
        "Ġre",
        "ce"
      ],
      [
        "il",
        "ar"
      ],
      [
        "ur",
        "ther"
      ],
      [
        "co",
        "very"
      ],
      [
        "Ġpo",
        "ss"
      ],
      [
        "ecess",
        "ary"
      ],
      [
        "3",
        "6"
      ],
      [
        "8",
        "5"
      ],
      [
        "Ġf",
        "ram"
      ],
      [
        "Ġw",
        "ould"
      ],
      [
        "Ġcon",
        "crete"
      ],
      [
        "Ġfor",
        "ce"
      ],
      [
        "ĠRes",
        "ource"
      ],
      [
        "is",
        "m"
      ],
      [
        "ro",
        "w"
      ],
      [
        "ction",
        "al"
      ],
      [
        "Ġmaterial",
        "s"
      ],
      [
        "Se",
        "e"
      ],
      [
        "M",
        "M"
      ],
      [
        "d",
        "ic"
      ],
      [
        "m",
        "ine"
      ],
      [
        "t",
        "il"
      ],
      [
        "er",
        "t"
      ],
      [
        "Ġn",
        "orm"
      ],
      [
        "pp",
        "ed"
      ],
      [
        "se",
        "mb"
      ],
      [
        "ĠP",
        "avement"
      ],
      [
        "mple",
        "ment"
      ],
      [
        "Ġed",
        "it"
      ],
      [
        "R",
        "el"
      ],
      [
        "c",
        "an"
      ],
      [
        "g",
        "ed"
      ],
      [
        "w",
        "e"
      ],
      [
        "à",
        "µ"
      ],
      [
        "Ġf",
        "ilter"
      ],
      [
        "Ġd",
        "ial"
      ],
      [
        "ail",
        "ed"
      ],
      [
        "Ġbec",
        "ause"
      ],
      [
        "a",
        "ction"
      ],
      [
        "o",
        "ff"
      ],
      [
        "le",
        "ctions"
      ],
      [
        "et",
        "ails"
      ],
      [
        "Ġth",
        "ree"
      ],
      [
        "th",
        "at"
      ],
      [
        "ĠEn",
        "gine"
      ],
      [
        "Ġdiï¬Ģ",
        "ere"
      ],
      [
        "Ġdescri",
        "bed"
      ],
      [
        "0",
        "2"
      ],
      [
        "9",
        "9"
      ],
      [
        "M",
        "od"
      ],
      [
        "d",
        "esign"
      ],
      [
        "le",
        "ar"
      ],
      [
        "eng",
        "th"
      ],
      [
        "ampl",
        "es"
      ],
      [
        "Ġ",
        "Ï"
      ],
      [
        "Ġ",
        "icon"
      ],
      [
        "Ġn",
        "ose"
      ],
      [
        "Ġ5",
        "800"
      ],
      [
        "mpl",
        "ates"
      ],
      [
        "Ġrat",
        "io"
      ],
      [
        "Ġdial",
        "og"
      ],
      [
        "3",
        "3"
      ],
      [
        "A",
        "dd"
      ],
      [
        "m",
        "ed"
      ],
      [
        "Ġto",
        "p"
      ],
      [
        "Ġre",
        "f"
      ],
      [
        "ĠR",
        "ep"
      ],
      [
        "ĠIn",
        "formation"
      ],
      [
        "end",
        "ing"
      ],
      [
        "Ġman",
        "y"
      ],
      [
        "rib",
        "ution"
      ],
      [
        "ĠVer",
        "ilog"
      ],
      [
        "c",
        "ase"
      ],
      [
        "w",
        "ord"
      ],
      [
        "Î",
        "²"
      ],
      [
        "Ġa",
        "erodynamic"
      ],
      [
        "Ġs",
        "ize"
      ],
      [
        "al",
        "og"
      ],
      [
        "est",
        "amp"
      ],
      [
        "ear",
        "ch"
      ],
      [
        "Ġincl",
        "uding"
      ],
      [
        "Ġattrib",
        "ute"
      ],
      [
        "A",
        "vail"
      ],
      [
        "E",
        "E"
      ],
      [
        "c",
        "u"
      ],
      [
        "w",
        "ind"
      ],
      [
        "ist",
        "on"
      ],
      [
        "Ġpl",
        "an"
      ],
      [
        "ĠApp",
        "ly"
      ],
      [
        "Ġge",
        "ar"
      ],
      [
        "ura",
        "cy"
      ],
      [
        "T",
        "his"
      ],
      [
        "d",
        "ire"
      ],
      [
        "h",
        "old"
      ],
      [
        "v",
        "anced"
      ],
      [
        "Ġc",
        "ould"
      ],
      [
        "Ġdesign",
        "ed"
      ],
      [
        "St",
        "ratix"
      ],
      [
        "Ġpan",
        "el"
      ],
      [
        "Ġcylind",
        "er"
      ],
      [
        "A",
        "s"
      ],
      [
        "n",
        "er"
      ],
      [
        "Ġs",
        "ource"
      ],
      [
        "Ġg",
        "u"
      ],
      [
        "Ġman",
        "ufact"
      ],
      [
        "Ġob",
        "tain"
      ],
      [
        "Ġrep",
        "resent"
      ],
      [
        "onitor",
        "ing"
      ],
      [
        "ĠWork",
        "spaces"
      ],
      [
        "d",
        "it"
      ],
      [
        "s",
        "ide"
      ],
      [
        "t",
        "itude"
      ],
      [
        "ic",
        "ation"
      ],
      [
        "Ġin",
        "itial"
      ],
      [
        "Ġb",
        "ack"
      ],
      [
        "lo",
        "b"
      ],
      [
        "Ġ1",
        "5"
      ],
      [
        "um",
        "e"
      ],
      [
        "ĠE",
        "ther"
      ],
      [
        "cl",
        "uding"
      ],
      [
        "9",
        "5"
      ],
      [
        "Ġt",
        "ask"
      ],
      [
        "Ġf",
        "ile"
      ],
      [
        "ĠT",
        "h"
      ],
      [
        "Ġpro",
        "duct"
      ],
      [
        "our",
        "se"
      ],
      [
        "ri",
        "es"
      ],
      [
        "Ġrun",
        "way"
      ],
      [
        "Ġcomput",
        "er"
      ],
      [
        "d",
        "is"
      ],
      [
        "l",
        "ed"
      ],
      [
        "Ġo",
        "pen"
      ],
      [
        "Ġst",
        "ress"
      ],
      [
        "ip",
        "s"
      ],
      [
        "man",
        "ager"
      ],
      [
        "ĠAir",
        "craft"
      ],
      [
        "R",
        "E"
      ],
      [
        "in",
        "ation"
      ],
      [
        "Ġf",
        "ound"
      ],
      [
        "as",
        "ing"
      ],
      [
        "Ġre",
        "al"
      ],
      [
        "ire",
        "d"
      ],
      [
        "ï¬ģ",
        "g"
      ],
      [
        "ecution",
        "s"
      ],
      [
        "lat",
        "form"
      ],
      [
        "i",
        "ency"
      ],
      [
        "Ġf",
        "requ"
      ],
      [
        "ĠĠ",
        "ĊĠ"
      ],
      [
        "ĠM",
        "echan"
      ],
      [
        "Ġco",
        "st"
      ],
      [
        "Ġde",
        "m"
      ],
      [
        "ĠV",
        "iew"
      ],
      [
        "end",
        "ix"
      ],
      [
        "Ġimp",
        "ort"
      ],
      [
        "Ġme",
        "asure"
      ],
      [
        "¯ï£¯ï£",
        "¯ï£¯ï£"
      ],
      [
        "ºï£ºï£",
        "ºï£ºï£"
      ],
      [
        "Ġim",
        "ages"
      ],
      [
        "plore",
        "r"
      ],
      [
        "f",
        "ir"
      ],
      [
        "ï",
        "Ĥ"
      ],
      [
        "od",
        "es"
      ],
      [
        "Ġdeter",
        "mine"
      ],
      [
        "imens",
        "ional"
      ],
      [
        "ren",
        "g"
      ],
      [
        ")",
        ":"
      ],
      [
        "ĠS",
        "ystem"
      ],
      [
        "ĠDe",
        "ployment"
      ],
      [
        "Ġfl",
        "ap"
      ],
      [
        "3",
        "2"
      ],
      [
        "C",
        "D"
      ],
      [
        "C",
        "reate"
      ],
      [
        "ĠA",
        "O"
      ],
      [
        "ĠThe",
        "se"
      ],
      [
        "os",
        "ing"
      ],
      [
        "Ġtrans",
        "lation"
      ],
      [
        "Ġpart",
        "ic"
      ],
      [
        "iqu",
        "e"
      ],
      [
        "resp",
        "ond"
      ],
      [
        "6",
        "6"
      ],
      [
        "9",
        "0"
      ],
      [
        "v",
        "is"
      ],
      [
        "Â",
        "°"
      ],
      [
        "Ġ",
        "el"
      ],
      [
        "Ġc",
        "ases"
      ],
      [
        "Ġd",
        "ri"
      ],
      [
        "Ġm",
        "ot"
      ],
      [
        "ĠT",
        "e"
      ],
      [
        "Ġg",
        "ra"
      ],
      [
        "Ġtra",
        "ck"
      ],
      [
        "ĠDe",
        "lete"
      ],
      [
        "s",
        "ub"
      ],
      [
        "v",
        "ate"
      ],
      [
        "Ġc",
        "ustom"
      ],
      [
        "Ġp",
        "itch"
      ],
      [
        "Ġd",
        "omain"
      ],
      [
        "ar",
        "ing"
      ],
      [
        "Ġg",
        "enai"
      ],
      [
        "ect",
        "ed"
      ],
      [
        "up",
        "er"
      ],
      [
        "Ġhe",
        "re"
      ],
      [
        "ater",
        "al"
      ],
      [
        "ĠPro",
        "tocol"
      ],
      [
        "lob",
        "al"
      ],
      [
        "p",
        "ower"
      ],
      [
        "ir",
        "on"
      ],
      [
        "ĠO",
        "pen"
      ],
      [
        "âĨ",
        "ĳ"
      ],
      [
        "ĠMod",
        "el"
      ],
      [
        "8",
        "6"
      ],
      [
        "Ġs",
        "ingle"
      ],
      [
        "Ġf",
        "inal"
      ],
      [
        "Ġ1",
        "00"
      ],
      [
        "Ġmod",
        "ule"
      ],
      [
        "Ġ2",
        "5"
      ],
      [
        "ĠN",
        "AT"
      ],
      [
        "Ġatt",
        "itude"
      ],
      [
        "Ġra",
        "d"
      ],
      [
        "C",
        "lick"
      ],
      [
        "F",
        "rom"
      ],
      [
        "c",
        "a"
      ],
      [
        "l",
        "ing"
      ],
      [
        "u",
        "mpt"
      ],
      [
        "Ġp",
        "ath"
      ],
      [
        "Ġm",
        "essage"
      ],
      [
        "Ġfor",
        "ward"
      ],
      [
        "ol",
        "ic"
      ],
      [
        "and",
        "s"
      ],
      [
        "os",
        "p"
      ],
      [
        "Ġclo",
        "ck"
      ],
      [
        "z",
        "z"
      ],
      [
        "an",
        "sion"
      ],
      [
        "Ġd",
        "ecre"
      ],
      [
        "ec",
        "ut"
      ],
      [
        "for",
        "ce"
      ],
      [
        "Ġincre",
        "ased"
      ],
      [
        "fer",
        "red"
      ],
      [
        "Ġstep",
        "s"
      ],
      [
        "Ġcompon",
        "ents"
      ],
      [
        "Ġam",
        "ount"
      ],
      [
        "ï¬ģg",
        "ur"
      ],
      [
        "A",
        "L"
      ],
      [
        "A",
        "d"
      ],
      [
        "A",
        "ut"
      ],
      [
        "L",
        "aun"
      ],
      [
        "ĠS",
        "cience"
      ],
      [
        "Ġe",
        "lect"
      ],
      [
        "Ġn",
        "ecessary"
      ],
      [
        "Ġpro",
        "ble"
      ],
      [
        "ay",
        "er"
      ],
      [
        "ers",
        "on"
      ],
      [
        "ĠO",
        "ver"
      ],
      [
        "de",
        "f"
      ],
      [
        "Ġcont",
        "in"
      ],
      [
        "sh",
        "aft"
      ],
      [
        "Ġhig",
        "her"
      ],
      [
        "reng",
        "th"
      ],
      [
        "8",
        "7"
      ],
      [
        "n",
        "o"
      ],
      [
        "t",
        "ies"
      ],
      [
        "w",
        "it"
      ],
      [
        "Ġ",
        "/"
      ],
      [
        "us",
        "ed"
      ],
      [
        "Ġh",
        "or"
      ],
      [
        "ist",
        "ry"
      ],
      [
        "Ġrun",
        "ning"
      ],
      [
        "Ġsupport",
        "ed"
      ],
      [
        "Ġstud",
        "y"
      ],
      [
        "Cl",
        "ou"
      ],
      [
        "W",
        "e"
      ],
      [
        "m",
        "er"
      ],
      [
        "r",
        "al"
      ],
      [
        "Ġm",
        "echan"
      ],
      [
        "Ġof",
        "f"
      ],
      [
        "Ġe",
        "ven"
      ],
      [
        "ĠL",
        "og"
      ],
      [
        "Ġlo",
        "cal"
      ],
      [
        "Ġun",
        "til"
      ],
      [
        "áĪ",
        "º"
      ],
      [
        "áĪ",
        "»"
      ],
      [
        "Ġpri",
        "or"
      ],
      [
        "Ġinstru",
        "ments"
      ],
      [
        "7",
        "7"
      ],
      [
        "8",
        "4"
      ],
      [
        "S",
        "p"
      ],
      [
        "S",
        "ec"
      ],
      [
        "r",
        "un"
      ],
      [
        "Ġ",
        "ï¬Ĥ"
      ],
      [
        "at",
        "ically"
      ],
      [
        "en",
        "ant"
      ],
      [
        "Ġb",
        "ox"
      ],
      [
        "Ġor",
        "der"
      ],
      [
        "ĠP",
        "l"
      ],
      [
        "ell",
        "er"
      ],
      [
        "îģ",
        "Į"
      ],
      [
        "Ġim",
        "age"
      ],
      [
        "Ġneed",
        "ed"
      ],
      [
        "Ġval",
        "ve"
      ],
      [
        "D",
        "ata"
      ],
      [
        "a",
        "icore"
      ],
      [
        "d",
        "ry"
      ],
      [
        "m",
        "ore"
      ],
      [
        "s",
        "ive"
      ],
      [
        "t",
        "ical"
      ],
      [
        "er",
        "al"
      ],
      [
        "ĠA",
        "ss"
      ],
      [
        "Ġbe",
        "ing"
      ],
      [
        "Ġair",
        "foil"
      ],
      [
        "pl",
        "i"
      ],
      [
        "con",
        "figuration"
      ],
      [
        "Ġman",
        "agement"
      ],
      [
        "Ġdiï¬Ģ",
        "user"
      ],
      [
        "S",
        "P"
      ],
      [
        "T",
        "echnology"
      ],
      [
        "v",
        "iron"
      ],
      [
        "he",
        "nt"
      ],
      [
        "Ġc",
        "alled"
      ],
      [
        "is",
        "hed"
      ],
      [
        "Ġco",
        "efficient"
      ],
      [
        "Ġpro",
        "cedure"
      ],
      [
        "Ġr",
        "igid"
      ],
      [
        "pt",
        "h"
      ],
      [
        "ach",
        "ine"
      ],
      [
        "minist",
        "r"
      ],
      [
        "Ġsyn",
        "thesis"
      ],
      [
        "Ġerr",
        "or"
      ],
      [
        "Ġposs",
        "ible"
      ],
      [
        "F",
        "oun"
      ],
      [
        "N",
        "D"
      ],
      [
        "U",
        "se"
      ],
      [
        "at",
        "ively"
      ],
      [
        "Ġs",
        "l"
      ],
      [
        "al",
        "s"
      ],
      [
        "ro",
        "du"
      ],
      [
        "Ġre",
        "main"
      ],
      [
        "ĠM",
        "etrics"
      ],
      [
        "Ġco",
        "ordin"
      ],
      [
        "ĠD",
        "etails"
      ],
      [
        "ri",
        "e"
      ],
      [
        "ail",
        "ure"
      ],
      [
        "chp",
        "a"
      ],
      [
        "og",
        "y"
      ],
      [
        "ific",
        "ant"
      ],
      [
        "Ġne",
        "g"
      ],
      [
        "Ġval",
        "id"
      ],
      [
        "\"",
        ","
      ],
      [
        "O",
        "R"
      ],
      [
        "T",
        "ype"
      ],
      [
        "U",
        "n"
      ],
      [
        "d",
        "ata"
      ],
      [
        "n",
        "ol"
      ],
      [
        "p",
        "re"
      ],
      [
        "Ġ.",
        "................................"
      ],
      [
        "Ġd",
        "rop"
      ],
      [
        "Ġm",
        "aneu"
      ],
      [
        "ĠC",
        "o"
      ],
      [
        "Ġ1",
        "6"
      ],
      [
        "if",
        "f"
      ],
      [
        "In",
        "fo"
      ],
      [
        "Ġexecution",
        "s"
      ],
      [
        "Ġmin",
        "imum"
      ],
      [
        "Ġdisc",
        "us"
      ],
      [
        "P",
        "latform"
      ],
      [
        "c",
        "or"
      ],
      [
        "u",
        "il"
      ],
      [
        "in",
        "s"
      ],
      [
        "ig",
        "ation"
      ],
      [
        "Ġapp",
        "ly"
      ],
      [
        "iv",
        "id"
      ],
      [
        "Ġcorre",
        "ct"
      ],
      [
        "Ġpack",
        "ets"
      ],
      [
        "Ġrepositor",
        "y"
      ],
      [
        "3",
        "1"
      ],
      [
        "3",
        "7"
      ],
      [
        "R",
        "L"
      ],
      [
        "f",
        "rom"
      ],
      [
        "Ġa",
        "round"
      ],
      [
        "er",
        "gy"
      ],
      [
        "Ġo",
        "ur"
      ],
      [
        "ut",
        "es"
      ],
      [
        "Ġcon",
        "ï¬ģgur"
      ],
      [
        "ot",
        "e"
      ],
      [
        "te",
        "g"
      ],
      [
        "âĢĿ",
        "."
      ],
      [
        "ffic",
        "iency"
      ],
      [
        "Ġaddress",
        "es"
      ],
      [
        "Ġlif",
        "e"
      ],
      [
        "Ġbel",
        "ow"
      ],
      [
        "Bus",
        "iness"
      ],
      [
        "Ġgre",
        "ater"
      ],
      [
        "fir",
        "m"
      ],
      [
        "5",
        "00"
      ],
      [
        "G",
        "en"
      ],
      [
        "h",
        "at"
      ],
      [
        "Ġp",
        "iston"
      ],
      [
        "Ġre",
        "covery"
      ],
      [
        "Ġus",
        "ually"
      ],
      [
        "Ġde",
        "ployments"
      ],
      [
        "Ġcan",
        "not"
      ],
      [
        "ri",
        "al"
      ],
      [
        "ĠIn",
        "ter"
      ],
      [
        "ator",
        "y"
      ],
      [
        "sp",
        "ec"
      ],
      [
        "Ġconfigure",
        "d"
      ],
      [
        "Ġident",
        "ify"
      ],
      [
        "Ġconsid",
        "er"
      ],
      [
        "ĠEngine",
        "ering"
      ],
      [
        "b",
        "ase"
      ],
      [
        "p",
        "ress"
      ],
      [
        "p",
        "oint"
      ],
      [
        "s",
        "ol"
      ],
      [
        "u",
        "ct"
      ],
      [
        "an",
        "ces"
      ],
      [
        "Ġm",
        "ade"
      ],
      [
        "ĠT",
        "ime"
      ],
      [
        "Ġ1",
        "2"
      ],
      [
        "ĠM",
        "ode"
      ],
      [
        "Ġal",
        "titude"
      ],
      [
        "ĠO",
        "r"
      ],
      [
        "ĠCon",
        "trol"
      ],
      [
        "Ġad",
        "just"
      ],
      [
        "ock",
        "er"
      ],
      [
        "Ġrec",
        "omm"
      ],
      [
        "mod",
        "el"
      ],
      [
        "Ġcrit",
        "er"
      ],
      [
        "bo",
        "ard"
      ],
      [
        "0",
        "1"
      ],
      [
        "x",
        "im"
      ],
      [
        "Ġc",
        "lear"
      ],
      [
        "en",
        "e"
      ],
      [
        "el",
        "ic"
      ],
      [
        "Ġl",
        "arg"
      ],
      [
        "Ġl",
        "ibr"
      ],
      [
        "Ġconst",
        "ruction"
      ],
      [
        "Ġsim",
        "ilar"
      ],
      [
        "Ġconnect",
        "ed"
      ],
      [
        "T",
        "S"
      ],
      [
        "f",
        "ile"
      ],
      [
        "i",
        "od"
      ],
      [
        "Ġt",
        "echn"
      ],
      [
        "ro",
        "ad"
      ],
      [
        "ch",
        "ie"
      ],
      [
        "Ġn",
        "av"
      ],
      [
        "our",
        "ces"
      ],
      [
        "ĠU",
        "p"
      ],
      [
        "ruct",
        "ure"
      ],
      [
        "ha",
        "ust"
      ],
      [
        "Ġcho",
        "osing"
      ],
      [
        "cu",
        "it"
      ],
      [
        "A",
        "B"
      ],
      [
        "F",
        "AA"
      ],
      [
        "Ġt",
        "enant"
      ],
      [
        "Ġp",
        "ract"
      ],
      [
        "Ġw",
        "ant"
      ],
      [
        "Ġde",
        "leted"
      ],
      [
        "ect",
        "s"
      ],
      [
        "Ġapp",
        "lied"
      ],
      [
        "ĠB",
        "SD"
      ],
      [
        "valu",
        "e"
      ],
      [
        "mm",
        "ing"
      ],
      [
        "Ġdeter",
        "min"
      ],
      [
        "elic",
        "opter"
      ],
      [
        "4",
        "4"
      ],
      [
        "S",
        "R"
      ],
      [
        "e",
        "ad"
      ],
      [
        "t",
        "ions"
      ],
      [
        "Ġs",
        "ince"
      ],
      [
        "Ġc",
        "am"
      ],
      [
        "Ġg",
        "rid"
      ],
      [
        "um",
        "er"
      ],
      [
        "iz",
        "ing"
      ],
      [
        "Ġsub",
        "net"
      ],
      [
        "ator",
        "s"
      ],
      [
        "Ġfollow",
        "s"
      ],
      [
        "Ġme",
        "an"
      ],
      [
        "Ġdire",
        "ction"
      ],
      [
        "ĠSer",
        "ver"
      ],
      [
        "Ġ00",
        "5"
      ],
      [
        "ĠAO",
        "A"
      ],
      [
        "g",
        "reg"
      ],
      [
        "Ġa",
        "chie"
      ],
      [
        "Ġc",
        "aus"
      ],
      [
        "ran",
        "ge"
      ],
      [
        "cal",
        "e"
      ],
      [
        "Ġk",
        "g"
      ],
      [
        "ĠÂ",
        "±"
      ],
      [
        "vest",
        "igate"
      ],
      [
        "semb",
        "ly"
      ],
      [
        "'",
        "t"
      ],
      [
        "a",
        "ced"
      ],
      [
        "Ġt",
        "ake"
      ],
      [
        "in",
        "ter"
      ],
      [
        "on",
        "se"
      ],
      [
        "Ġin",
        "ches"
      ],
      [
        "ĠT",
        "ype"
      ],
      [
        "ra",
        "ck"
      ],
      [
        "Ġe",
        "mp"
      ],
      [
        "ens",
        "ity"
      ],
      [
        "av",
        "ed"
      ],
      [
        "De",
        "lete"
      ],
      [
        "Ġstat",
        "ic"
      ],
      [
        "tern",
        "ational"
      ],
      [
        "Ġlong",
        "er"
      ],
      [
        "Ġcat",
        "alog"
      ],
      [
        "/",
        "/"
      ],
      [
        "0",
        "9"
      ],
      [
        "8",
        "9"
      ],
      [
        "E",
        "D"
      ],
      [
        "I",
        "C"
      ],
      [
        "i",
        "vers"
      ],
      [
        "Ġcon",
        "figurations"
      ],
      [
        "Ġl",
        "i"
      ],
      [
        "se",
        "e"
      ],
      [
        "ĠD",
        "is"
      ],
      [
        "ĠD",
        "ata"
      ],
      [
        "ĠL",
        "i"
      ],
      [
        "ay",
        "s"
      ],
      [
        "ĠN",
        "ew"
      ],
      [
        "du",
        "le"
      ],
      [
        "che",
        "dule"
      ],
      [
        "B",
        "R"
      ],
      [
        "D",
        "is"
      ],
      [
        "Ġ",
        "ï¬ģ"
      ],
      [
        "Ġw",
        "rit"
      ],
      [
        "ĠH",
        "ub"
      ],
      [
        "Ġpre",
        "vent"
      ],
      [
        "Ġso",
        "ftware"
      ],
      [
        "Ġprogra",
        "m"
      ],
      [
        "viron",
        "ment"
      ],
      [
        "6",
        "5"
      ],
      [
        "F",
        "ig"
      ],
      [
        "I",
        "T"
      ],
      [
        "O",
        "D"
      ],
      [
        "g",
        "an"
      ],
      [
        "l",
        "er"
      ],
      [
        "r",
        "int"
      ],
      [
        "Ä",
        "±"
      ],
      [
        "or",
        "age"
      ],
      [
        "Ġre",
        "qu"
      ],
      [
        "st",
        "ruction"
      ],
      [
        "ĠL",
        "e"
      ],
      [
        "Ġcomp",
        "arison"
      ],
      [
        "ĠIn",
        "st"
      ],
      [
        "ĠU",
        "S"
      ],
      [
        "Ġrun",
        "s"
      ],
      [
        "Ġredu",
        "ce"
      ],
      [
        "Ġcor",
        "respond"
      ],
      [
        "Ġî",
        "Ģ"
      ],
      [
        "Ġcompare",
        "d"
      ],
      [
        "a",
        "cc"
      ],
      [
        "Ġthe",
        "m"
      ],
      [
        "ust",
        "ion"
      ],
      [
        "25",
        "5"
      ],
      [
        "Ġacc",
        "uracy"
      ],
      [
        "Ġle",
        "arning"
      ],
      [
        "Ġpre",
        "vious"
      ],
      [
        "ak",
        "ing"
      ],
      [
        "Ġincl",
        "ud"
      ],
      [
        "Ġlangu",
        "age"
      ],
      [
        "M",
        "an"
      ],
      [
        "T",
        "ip"
      ],
      [
        "s",
        "es"
      ],
      [
        "t",
        "ype"
      ],
      [
        "Ġb",
        "atter"
      ],
      [
        "Ġh",
        "and"
      ],
      [
        "Ġus",
        "ers"
      ],
      [
        "Ġ3",
        "0"
      ],
      [
        "are",
        "d"
      ],
      [
        "Ġsub",
        "st"
      ],
      [
        "Ġhe",
        "l"
      ],
      [
        "Ġle",
        "ad"
      ],
      [
        "fere",
        "n"
      ],
      [
        "Ġlist",
        "ed"
      ],
      [
        "Ġdef",
        "ined"
      ],
      [
        "De",
        "fault"
      ],
      [
        "Ġoper",
        "ating"
      ],
      [
        "3",
        "9"
      ],
      [
        "6",
        "7"
      ],
      [
        "Ý",
        "Ĳ"
      ],
      [
        "is",
        "ter"
      ],
      [
        "ĠA",
        "C"
      ],
      [
        "el",
        "er"
      ],
      [
        "ĠS",
        "te"
      ],
      [
        "Ġre",
        "ference"
      ],
      [
        "20",
        "25"
      ],
      [
        "Ġapp",
        "lications"
      ],
      [
        "Ġsh",
        "ape"
      ],
      [
        "abil",
        "ities"
      ],
      [
        "ib",
        "li"
      ],
      [
        "I",
        "G"
      ],
      [
        "a",
        "ches"
      ],
      [
        "p",
        "hic"
      ],
      [
        "w",
        "here"
      ],
      [
        "it",
        "u"
      ],
      [
        "Ġp",
        "ur"
      ],
      [
        "ĠThe",
        "re"
      ],
      [
        "quire",
        "ments"
      ],
      [
        "ĠEx",
        "plorer"
      ],
      [
        "Ġrep",
        "ort"
      ],
      [
        "Ġresp",
        "ect"
      ],
      [
        "Ġgo",
        "od"
      ],
      [
        "Res",
        "ults"
      ],
      [
        "ĠStat",
        "us"
      ],
      [
        "Ġnorm",
        "al"
      ],
      [
        ")",
        ")"
      ],
      [
        "3",
        "4"
      ],
      [
        "A",
        "ll"
      ],
      [
        "l",
        "u"
      ],
      [
        "m",
        "en"
      ],
      [
        "at",
        "ic"
      ],
      [
        "er",
        "n"
      ],
      [
        "or",
        "ies"
      ],
      [
        "Ġs",
        "i"
      ],
      [
        "Ġp",
        "ar"
      ],
      [
        "ĠP",
        "o"
      ],
      [
        "de",
        "x"
      ],
      [
        "ari",
        "es"
      ],
      [
        "âĪ",
        "Ĺ"
      ],
      [
        "ĠSt",
        "ability"
      ],
      [
        "Pro",
        "mpt"
      ],
      [
        "aly",
        "sis"
      ],
      [
        "Ġconst",
        "ant"
      ],
      [
        "ĠOn",
        "ly"
      ],
      [
        "Ġcompress",
        "or"
      ],
      [
        "i",
        "er"
      ],
      [
        "i",
        "or"
      ],
      [
        "r",
        "m"
      ],
      [
        "lo",
        "y"
      ],
      [
        "Ġe",
        "valu"
      ],
      [
        "Ġl",
        "ength"
      ],
      [
        "iv",
        "ity"
      ],
      [
        "Ġload",
        "s"
      ],
      [
        "peri",
        "od"
      ],
      [
        "Ġest",
        "abl"
      ],
      [
        "Ġtim",
        "estamp"
      ],
      [
        "Ġcrit",
        "ical"
      ],
      [
        "Ġderiv",
        "atives"
      ],
      [
        "E",
        "C"
      ],
      [
        "i",
        "an"
      ],
      [
        "Ġ",
        "u"
      ],
      [
        "es",
        "h"
      ],
      [
        "ĠS",
        "o"
      ],
      [
        "ĠF",
        "light"
      ],
      [
        "Ġse",
        "par"
      ],
      [
        "Ġen",
        "ergy"
      ],
      [
        "Ġdes",
        "ired"
      ],
      [
        "ip",
        "eline"
      ],
      [
        "ĠAdd",
        "ress"
      ],
      [
        "Ġcent",
        "er"
      ],
      [
        "tic",
        "le"
      ],
      [
        "er",
        "o"
      ],
      [
        "Ġp",
        "e"
      ],
      [
        "et",
        "ter"
      ],
      [
        "dd",
        "er"
      ],
      [
        "Ġper",
        "cent"
      ],
      [
        "ix",
        "ed"
      ],
      [
        "ĠDe",
        "f"
      ],
      [
        "cri",
        "pt"
      ],
      [
        "way",
        "s"
      ],
      [
        "Ġag",
        "ain"
      ],
      [
        "ĠEther",
        "net"
      ],
      [
        "m",
        "ark"
      ],
      [
        "v",
        "ant"
      ],
      [
        "Ġf",
        "ind"
      ],
      [
        "ar",
        "n"
      ],
      [
        "Ġn",
        "odes"
      ],
      [
        "ĠC",
        "D"
      ],
      [
        "ĠC",
        "lass"
      ],
      [
        "Ġst",
        "rength"
      ],
      [
        "Ġbe",
        "h"
      ],
      [
        "ĠH",
        "elicopter"
      ],
      [
        "ĠU",
        "se"
      ],
      [
        "Ġper",
        "iod"
      ],
      [
        "Ġun",
        "ique"
      ],
      [
        "Ġexp",
        "ansion"
      ],
      [
        "umm",
        "ary"
      ],
      [
        "4",
        "8"
      ],
      [
        "A",
        "ir"
      ],
      [
        "a",
        "im"
      ],
      [
        "o",
        "ad"
      ],
      [
        "s",
        "ure"
      ],
      [
        "Ġb",
        "ody"
      ],
      [
        "et",
        "y"
      ],
      [
        "Ġre",
        "st"
      ],
      [
        "Ġst",
        "abilized"
      ],
      [
        "pp",
        "er"
      ],
      [
        "ĠG",
        "it"
      ],
      [
        "pl",
        "ace"
      ],
      [
        "Ġsh",
        "aft"
      ],
      [
        "Ġsp",
        "in"
      ],
      [
        "Ġnum",
        "bers"
      ],
      [
        "Ġcontain",
        "er"
      ],
      [
        "Ġfun",
        "ctions"
      ],
      [
        "Gener",
        "ative"
      ],
      [
        "Rel",
        "ated"
      ],
      [
        "wit",
        "ches"
      ],
      [
        "s",
        "i"
      ],
      [
        "ed",
        "back"
      ],
      [
        "Ġre",
        "ad"
      ],
      [
        "ĠM",
        "AC"
      ],
      [
        "Ġ20",
        "23"
      ],
      [
        "Ġsign",
        "ificant"
      ],
      [
        "Ġallow",
        "s"
      ],
      [
        "Ġcharacter",
        "istics"
      ],
      [
        "umpt",
        "ion"
      ],
      [
        "s",
        "id"
      ],
      [
        "Ċ",
        "ĠĠĠĠ"
      ],
      [
        "en",
        "u"
      ],
      [
        "Ġf",
        "urther"
      ],
      [
        "Ġd",
        "ynamic"
[...]
